{
  "version": "1.0",
  "truncation": null,
  "padding": {
    "strategy": {
      "Fixed": 64
    },
    "direction": "Right",
    "pad_to_multiple_of": null,
    "pad_id": 1,
    "pad_type_id": 0,
    "pad_token": "[PAD]"
  },
  "added_tokens": [
    {
      "id": 0,
      "content": "[UNK]",
      "single_word": false,
      "lstrip": false,
      "rstrip": false,
      "normalized": false,
      "special": true
    },
    {
      "id": 1,
      "content": "[PAD]",
      "single_word": false,
      "lstrip": false,
      "rstrip": false,
      "normalized": false,
      "special": true
    },
    {
      "id": 2,
      "content": "[BOS]",
      "single_word": false,
      "lstrip": false,
      "rstrip": false,
      "normalized": false,
      "special": true
    },
    {
      "id": 3,
      "content": "[EOS]",
      "single_word": false,
      "lstrip": false,
      "rstrip": false,
      "normalized": false,
      "special": true
    }
  ],
  "normalizer": null,
  "pre_tokenizer": {
    "type": "Whitespace"
  },
  "post_processor": {
    "type": "TemplateProcessing",
    "single": [
      {
        "SpecialToken": {
          "id": "[BOS]",
          "type_id": 0
        }
      },
      {
        "Sequence": {
          "id": "A",
          "type_id": 0
        }
      },
      {
        "SpecialToken": {
          "id": "[EOS]",
          "type_id": 0
        }
      }
    ],
    "pair": [
      {
        "Sequence": {
          "id": "A",
          "type_id": 0
        }
      },
      {
        "Sequence": {
          "id": "B",
          "type_id": 1
        }
      }
    ],
    "special_tokens": {
      "[BOS]": {
        "id": "[BOS]",
        "ids": [
          2
        ],
        "tokens": [
          "[BOS]"
        ]
      },
      "[EOS]": {
        "id": "[EOS]",
        "ids": [
          3
        ],
        "tokens": [
          "[EOS]"
        ]
      }
    }
  },
  "decoder": null,
  "model": {
    "type": "BPE",
    "dropout": null,
    "unk_token": "[UNK]",
    "continuing_subword_prefix": null,
    "end_of_word_suffix": null,
    "fuse_unk": false,
    "vocab": {
      "[UNK]": 0,
      "[PAD]": 1,
      "[BOS]": 2,
      "[EOS]": 3,
      "!": 4,
      "\"": 5,
      "#": 6,
      "$": 7,
      "%": 8,
      "&": 9,
      "'": 10,
      "(": 11,
      ")": 12,
      ",": 13,
      "-": 14,
      ".": 15,
      "/": 16,
      "0": 17,
      "1": 18,
      "2": 19,
      "3": 20,
      "4": 21,
      "5": 22,
      "6": 23,
      "7": 24,
      "8": 25,
      "9": 26,
      ":": 27,
      ";": 28,
      "=": 29,
      "?": 30,
      "@": 31,
      "A": 32,
      "B": 33,
      "C": 34,
      "D": 35,
      "E": 36,
      "F": 37,
      "G": 38,
      "H": 39,
      "I": 40,
      "J": 41,
      "K": 42,
      "L": 43,
      "M": 44,
      "N": 45,
      "O": 46,
      "P": 47,
      "Q": 48,
      "R": 49,
      "S": 50,
      "T": 51,
      "U": 52,
      "V": 53,
      "W": 54,
      "X": 55,
      "Y": 56,
      "Z": 57,
      "_": 58,
      "`": 59,
      "a": 60,
      "b": 61,
      "c": 62,
      "d": 63,
      "e": 64,
      "f": 65,
      "g": 66,
      "h": 67,
      "i": 68,
      "j": 69,
      "k": 70,
      "l": 71,
      "m": 72,
      "n": 73,
      "o": 74,
      "p": 75,
      "q": 76,
      "r": 77,
      "s": 78,
      "t": 79,
      "u": 80,
      "v": 81,
      "w": 82,
      "x": 83,
      "y": 84,
      "z": 85,
      "Ä": 86,
      "Ö": 87,
      "Ü": 88,
      "ß": 89,
      "à": 90,
      "ä": 91,
      "è": 92,
      "é": 93,
      "ñ": 94,
      "ö": 95,
      "ü": 96,
      "–": 97,
      "‘": 98,
      "’": 99,
      "“": 100,
      "”": 101,
      "„": 102,
      "in": 103,
      "en": 104,
      "er": 105,
      "an": 106,
      "ein": 107,
      "ch": 108,
      "it": 109,
      "ing": 110,
      "un": 111,
      "ar": 112,
      "au": 113,
      "on": 114,
      "em": 115,
      "st": 116,
      "Ein": 117,
      "le": 118,
      "th": 119,
      "re": 120,
      "and": 121,
      "el": 122,
      "al": 123,
      "is": 124,
      "einem": 125,
      "und": 126,
      "at": 127,
      "ro": 128,
      "ge": 129,
      "or": 130,
      "ei": 131,
      "man": 132,
      "ck": 133,
      "es": 134,
      "as": 135,
      "auf": 136,
      "the": 137,
      "et": 138,
      "mit": 139,
      "wo": 140,
      "ir": 141,
      "sch": 142,
      "Man": 143,
      "la": 144,
      "der": 145,
      "ra": 146,
      "ie": 147,
      "of": 148,
      "Mann": 149,
      "einer": 150,
      "to": 151,
      "hr": 152,
      "si": 153,
      "ith": 154,
      "with": 155,
      "wei": 156,
      "rau": 157,
      "il": 158,
      "ol": 159,
      "ung": 160,
      "Eine": 161,
      "pe": 162,
      "all": 163,
      "de": 164,
      "ter": 165,
      "bl": 166,
      "be": 167,
      "im": 168,
      "ers": 169,
      "bo": 170,
      "sp": 171,
      "ut": 172,
      "am": 173,
      "sit": 174,
      "sh": 175,
      "Frau": 176,
      "ten": 177,
      "op": 178,
      "men": 179,
      "do": 180,
      "wh": 181,
      "eine": 182,
      "up": 183,
      "lo": 184,
      "ur": 185,
      "ne": 186,
      "ri": 187,
      "iel": 188,
      "we": 189,
      "chen": 190,
      "ht": 191,
      "are": 192,
      "St": 193,
      "den": 194,
      "einen": 195,
      "king": 196,
      "um": 197,
      "Mä": 198,
      "se": 199,
      "gen": 200,
      "ben": 201,
      "woman": 202,
      "irt": 203,
      "die": 204,
      "ach": 205,
      "ste": 206,
      "pla": 207,
      "gro": 208,
      "ding": 209,
      "ber": 210,
      "Sch": 211,
      "zu": 212,
      "ver": 213,
      "Zwei": 214,
      "ass": 215,
      "ople": 216,
      "Two": 217,
      "play": 218,
      "ack": 219,
      "he": 220,
      "ball": 221,
      "spiel": 222,
      "ic": 223,
      "om": 224,
      "ft": 225,
      "id": 226,
      "aring": 227,
      "ad": 228,
      "stand": 229,
      "te": 230,
      "shirt": 231,
      "ting": 232,
      "wal": 233,
      "erson": 234,
      "li": 235,
      "hen": 236,
      "war": 237,
      "vor": 238,
      "sitz": 239,
      "wearing": 240,
      "ind": 241,
      "wn": 242,
      "gr": 243,
      "people": 244,
      "ite": 245,
      "kl": 246,
      "rei": 247,
      "ßen": 248,
      "von": 249,
      "ot": 250,
      "ner": 251,
      "her": 252,
      "unge": 253,
      "sich": 254,
      "oung": 255,
      "gt": 256,
      "red": 257,
      "ier": 258,
      "ile": 259,
      "dem": 260,
      "ähr": 261,
      "ue": 262,
      "bei": 263,
      "lt": 264,
      "ild": 265,
      "white": 266,
      "irl": 267,
      "ss": 268,
      "for": 269,
      "boy": 270,
      "dchen": 271,
      "Mädchen": 272,
      "young": 273,
      "his": 274,
      "girl": 275,
      "out": 276,
      "dog": 277,
      "ther": 278,
      "nen": 279,
      "bla": 280,
      "ed": 281,
      "Hund": 282,
      "co": 283,
      "Person": 284,
      "tr": 285,
      "black": 286,
      "wat": 287,
      "ta": 288,
      "cht": 289,
      "ße": 290,
      "warz": 291,
      "side": 292,
      "ug": 293,
      "while": 294,
      "one": 295,
      "Gr": 296,
      "ig": 297,
      "blue": 298,
      "ce": 299,
      "eines": 300,
      "nner": 301,
      "schwarz": 302,
      "ts": 303,
      "end": 304,
      "by": 305,
      "Männer": 306,
      "hä": 307,
      "blau": 308,
      "steht": 309,
      "ahr": 310,
      "ent": 311,
      "stre": 312,
      "ho": 313,
      "Stra": 314,
      "sitting": 315,
      "ark": 316,
      "hol": 317,
      "leid": 318,
      "lä": 319,
      "ik": 320,
      "air": 321,
      "loo": 322,
      "ren": 323,
      "Men": 324,
      "po": 325,
      "sitzt": 326,
      "aus": 327,
      "ap": 328,
      "standing": 329,
      "ist": 330,
      "ander": 331,
      "fr": 332,
      "playing": 333,
      "isch": 334,
      "über": 335,
      "Junge": 336,
      "child": 337,
      "bu": 338,
      "gel": 339,
      "ow": 340,
      "group": 341,
      "street": 342,
      "wa": 343,
      "uppe": 344,
      "schen": 345,
      "Ge": 346,
      "ard": 347,
      "down": 348,
      "ont": 349,
      "hält": 350,
      "lan": 351,
      "ul": 352,
      "Straße": 353,
      "ährend": 354,
      "ree": 355,
      "Sp": 356,
      "während": 357,
      "hat": 358,
      "ve": 359,
      "walking": 360,
      "unter": 361,
      "fo": 362,
      "An": 363,
      "ion": 364,
      "sm": 365,
      "Menschen": 366,
      "Gruppe": 367,
      "walk": 368,
      "spielt": 369,
      "front": 370,
      "Hem": 371,
      "inter": 372,
      "other": 373,
      "ome": 374,
      "ange": 375,
      "cro": 376,
      "ger": 377,
      "ze": 378,
      "sk": 379,
      "holding": 380,
      "car": 381,
      "sen": 382,
      "dre": 383,
      "Hemd": 384,
      "ink": 385,
      "ring": 386,
      "än": 387,
      "ell": 388,
      "Personen": 389,
      "fen": 390,
      "water": 391,
      "dur": 392,
      "itt": 393,
      "run": 394,
      "schau": 395,
      "tra": 396,
      "fer": 397,
      "inder": 398,
      "che": 399,
      "low": 400,
      "das": 401,
      "ke": 402,
      "ate": 403,
      "ick": 404,
      "uft": 405,
      "Le": 406,
      "The": 407,
      "wor": 408,
      "ür": 409,
      "blauen": 410,
      "form": 411,
      "ru": 412,
      "ump": 413,
      "ct": 414,
      "ying": 415,
      "sing": 416,
      "stehen": 417,
      "asser": 418,
      "weißen": 419,
      "des": 420,
      "thro": 421,
      "ma": 422,
      "eil": 423,
      "neben": 424,
      "back": 425,
      "acht": 426,
      "bra": 427,
      "some": 428,
      "Kinder": 429,
      "ha": 430,
      "mo": 431,
      "amer": 432,
      "gre": 433,
      "Frauen": 434,
      "Wasser": 435,
      "far": 436,
      "beit": 437,
      "roten": 438,
      "fe": 439,
      "durch": 440,
      "imm": 441,
      "sitzen": 442,
      "rad": 443,
      "pa": 444,
      "Kind": 445,
      "ba": 446,
      "äu": 447,
      "ihr": 448,
      "orange": 449,
      "uit": 450,
      "looking": 451,
      "green": 452,
      "Fo": 453,
      "jump": 454,
      "braun": 455,
      "spring": 456,
      "spielen": 457,
      "ble": 458,
      "women": 459,
      "now": 460,
      "weiß": 461,
      "ittle": 462,
      "geht": 463,
      "lar": 464,
      "hn": 465,
      "grü": 466,
      "Th": 467,
      "board": 468,
      "ler": 469,
      "fro": 470,
      "bro": 471,
      "ans": 472,
      "Drei": 473,
      "trä": 474,
      "fähr": 475,
      "fährt": 476,
      "Hand": 477,
      "fahr": 478,
      "outside": 479,
      "ugh": 480,
      "lie": 481,
      "ong": 482,
      "art": 483,
      "kleid": 484,
      "Fahr": 485,
      "lass": 486,
      "Three": 487,
      "od": 488,
      "farben": 489,
      "trägt": 490,
      "gra": 491,
      "ground": 492,
      "little": 493,
      "lang": 494,
      "di": 495,
      "large": 496,
      "ks": 497,
      "ff": 498,
      "da": 499,
      "through": 500,
      "Au": 501,
      "amera": 502,
      "per": 503,
      "Bo": 504,
      "elt": 505,
      "ellow": 506,
      "Kleid": 507,
      "Leut": 508,
      "snow": 509,
      "brown": 510,
      "cle": 511,
      "yellow": 512,
      "Ober": 513,
      "Spiel": 514,
      "teil": 515,
      "ere": 516,
      "two": 517,
      "ih": 518,
      "ph": 519,
      "over": 520,
      "zen": 521,
      "sed": 522,
      "kleines": 523,
      "cke": 524,
      "hand": 525,
      "eir": 526,
      "con": 527,
      "macht": 528,
      "springt": 529,
      "lter": 530,
      "was": 531,
      "Me": 532,
      "jack": 533,
      "age": 534,
      "bik": 535,
      "ure": 536,
      "entlang": 537,
      "schwarzen": 538,
      "ert": 539,
      "blon": 540,
      "from": 541,
      "their": 542,
      "eln": 543,
      "junge": 544,
      "into": 545,
      "ds": 546,
      "arbeit": 547,
      "ine": 548,
      "Sh": 549,
      "ase": 550,
      "Se": 551,
      "zwei": 552,
      "ly": 553,
      "person": 554,
      "xt": 555,
      "kleiner": 556,
      "sa": 557,
      "vers": 558,
      "hal": 559,
      "gehen": 560,
      "ning": 561,
      "ungen": 562,
      "watch": 563,
      "buil": 564,
      "thing": 565,
      "Ho": 566,
      "sie": 567,
      "lu": 568,
      "ank": 569,
      "building": 570,
      "ame": 571,
      "children": 572,
      "Ba": 573,
      "next": 574,
      "aar": 575,
      "ssed": 576,
      "Leute": 577,
      "stru": 578,
      "small": 579,
      "Ar": 580,
      "near": 581,
      "je": 582,
      "top": 583,
      "dressed": 584,
      "ght": 585,
      "Fel": 586,
      "fa": 587,
      "hin": 588,
      "crow": 589,
      "uß": 590,
      "sw": 591,
      "ille": 592,
      "clo": 593,
      "bäu": 594,
      "ischen": 595,
      "Sk": 596,
      "jacket": 597,
      "igen": 598,
      "off": 599,
      "table": 600,
      "kleidet": 601,
      "ster": 602,
      "ving": 603,
      "grass": 604,
      "Pe": 605,
      "wir": 606,
      "Fahrrad": 607,
      "pink": 608,
      "otor": 609,
      "rand": 610,
      "ill": 611,
      "Oberteil": 612,
      "ant": 613,
      "aro": 614,
      "dy": 615,
      "ige": 616,
      "cken": 617,
      "mu": 618,
      "iert": 619,
      "Fuß": 620,
      "lat": 621,
      "ab": 622,
      "etwas": 623,
      "ag": 624,
      "ask": 625,
      "älter": 626,
      "riding": 627,
      "let": 628,
      "hrere": 629,
      "running": 630,
      "park": 631,
      "seinem": 632,
      "uch": 633,
      "People": 634,
      "großen": 635,
      "dr": 636,
      "Ball": 637,
      "hel": 638,
      "nee": 639,
      "bri": 640,
      "me": 641,
      "orts": 642,
      "another": 643,
      "around": 644,
      "grünen": 645,
      "fiel": 646,
      "so": 647,
      "rep": 648,
      "weg": 649,
      "fü": 650,
      "ycle": 651,
      "nach": 652,
      "eit": 653,
      "ort": 654,
      "Gebäu": 655,
      "Jack": 656,
      "br": 657,
      "col": 658,
      "schaut": 659,
      "hl": 660,
      "grund": 661,
      "ity": 662,
      "icht": 663,
      "field": 664,
      "gekleidet": 665,
      "sidewalk": 666,
      "us": 667,
      "Hinter": 668,
      "ern": 669,
      "cks": 670,
      "work": 671,
      "qu": 672,
      "bt": 673,
      "lasses": 674,
      "way": 675,
      "Ges": 676,
      "Bau": 677,
      "beach": 678,
      "pu": 679,
      "ob": 680,
      "Luft": 681,
      "tal": 682,
      "nt": 683,
      "tain": 684,
      "hind": 685,
      "ang": 686,
      "cross": 687,
      "opf": 688,
      "läuft": 689,
      "Shirt": 690,
      "old": 691,
      "crowd": 692,
      "nis": 693,
      "pic": 694,
      "Der": 695,
      "hair": 696,
      "aufen": 697,
      "zt": 698,
      "Mehrere": 699,
      "Frei": 700,
      "Strand": 701,
      "stands": 702,
      "farbenen": 703,
      "cer": 704,
      "gu": 705,
      "sits": 706,
      "jumping": 707,
      "sind": 708,
      "dress": 709,
      "sur": 710,
      "behind": 711,
      "bike": 712,
      "mer": 713,
      "für": 714,
      "läch": 715,
      "ling": 716,
      "Asi": 717,
      "sho": 718,
      "sehen": 719,
      "Hintergrund": 720,
      "hinter": 721,
      "phone": 722,
      "Jungen": 723,
      "door": 724,
      "aseball": 725,
      "rot": 726,
      "halten": 727,
      "ful": 728,
      "head": 729,
      "Re": 730,
      "com": 731,
      "jung": 732,
      "ture": 733,
      "go": 734,
      "ping": 735,
      "spieler": 736,
      "asket": 737,
      "Jacke": 738,
      "Kleidung": 739,
      "rest": 740,
      "les": 741,
      "als": 742,
      "Freien": 743,
      "itar": 744,
      "anderen": 745,
      "ateboard": 746,
      "background": 747,
      "Br": 748,
      "iling": 749,
      "zeug": 750,
      "dan": 751,
      "sc": 752,
      "ating": 753,
      "Kopf": 754,
      "ies": 755,
      "gelben": 756,
      "sam": 757,
      "gest": 758,
      "asi": 759,
      "cing": 760,
      "met": 761,
      "junger": 762,
      "ation": 763,
      "wer": 764,
      "wall": 765,
      "hoch": 766,
      "vorbei": 767,
      "bre": 768,
      "ped": 769,
      "city": 770,
      "pf": 771,
      "In": 772,
      "af": 773,
      "pro": 774,
      "ör": 775,
      "Tisch": 776,
      "iform": 777,
      "ice": 778,
      "eren": 779,
      "cher": 780,
      "untain": 781,
      "player": 782,
      "girls": 783,
      "bic": 784,
      "ucht": 785,
      "its": 786,
      "perform": 787,
      "picture": 788,
      "pan": 789,
      "suit": 790,
      "ves": 791,
      "looks": 792,
      "vol": 793,
      "ück": 794,
      "ün": 795,
      "otball": 796,
      "bar": 797,
      "menge": 798,
      "Schnee": 799,
      "uitar": 800,
      "zug": 801,
      "dogs": 802,
      "Son": 803,
      "stei": 804,
      "andere": 805,
      "Nä": 806,
      "tan": 807,
      "Hut": 808,
      "Gebäude": 809,
      "guitar": 810,
      "veral": 811,
      "Foto": 812,
      "Bü": 813,
      "that": 814,
      "zei": 815,
      "camera": 816,
      "Fußball": 817,
      "schwarzer": 818,
      "hne": 819,
      "aur": 820,
      "lag": 821,
      "rock": 822,
      "asketball": 823,
      "bet": 824,
      "Te": 825,
      "kt": 826,
      "bus": 827,
      "ade": 828,
      "ll": 829,
      "wird": 830,
      "Gras": 831,
      "jo": 832,
      "blick": 833,
      "Kamera": 834,
      "set": 835,
      "older": 836,
      "deck": 837,
      "fahrer": 838,
      "Nähe": 839,
      "ssen": 840,
      "talking": 841,
      "fon": 842,
      "something": 843,
      "band": 844,
      "mid": 845,
      "wimm": 846,
      "sten": 847,
      "beim": 848,
      "blond": 849,
      "cl": 850,
      "boys": 851,
      "kleine": 852,
      "ip": 853,
      "mp": 854,
      "kleinen": 855,
      "ccer": 856,
      "Gitar": 857,
      "Park": 858,
      "hor": 859,
      "einander": 860,
      "under": 861,
      "Stad": 862,
      "weißer": 863,
      "üt": 864,
      "Menschenmenge": 865,
      "bes": 866,
      "gn": 867,
      "along": 868,
      "ire": 869,
      "iger": 870,
      "walks": 871,
      "sto": 872,
      "food": 873,
      "ga": 874,
      "ieren": 875,
      "stri": 876,
      "boar": 877,
      "Hunde": 878,
      "Haar": 879,
      "dle": 880,
      "Geh": 881,
      "working": 882,
      "ische": 883,
      "aurant": 884,
      "ys": 885,
      "road": 886,
      "lady": 887,
      "gether": 888,
      "together": 889,
      "soccer": 890,
      "ish": 891,
      "ment": 892,
      "fahren": 893,
      "Boden": 894,
      "ihre": 895,
      "rosa": 896,
      "dun": 897,
      "uniform": 898,
      "gray": 899,
      "grau": 900,
      "Ber": 901,
      "alt": 902,
      "ction": 903,
      "liegt": 904,
      "ive": 905,
      "bicycle": 906,
      "att": 907,
      "smiling": 908,
      "him": 909,
      "Die": 910,
      "rennt": 911,
      "has": 912,
      "plays": 913,
      "game": 914,
      "ak": 915,
      "bereit": 916,
      "Feld": 917,
      "Sonnen": 918,
      "them": 919,
      "bench": 920,
      "Straßen": 921,
      "rying": 922,
      "sand": 923,
      "schie": 924,
      "Vier": 925,
      "We": 926,
      "zusam": 927,
      "can": 928,
      "latz": 929,
      "führ": 930,
      "Gitarre": 931,
      "ich": 932,
      "schauen": 933,
      "Stadt": 934,
      "kel": 935,
      "tri": 936,
      "Asian": 937,
      "ded": 938,
      "letter": 939,
      "ple": 940,
      "tel": 941,
      "arm": 942,
      "holds": 943,
      "ater": 944,
      "ihren": 945,
      "swe": 946,
      "äft": 947,
      "face": 948,
      "Blu": 949,
      "glasses": 950,
      "posi": 951,
      "clim": 952,
      "Je": 953,
      "Four": 954,
      "tre": 955,
      "ok": 956,
      "är": 957,
      "chair": 958,
      "herum": 959,
      "ight": 960,
      "pants": 961,
      "bef": 962,
      "shorts": 963,
      "pur": 964,
      "stu": 965,
      "room": 966,
      "get": 967,
      "braunen": 968,
      "zusammen": 969,
      "wing": 970,
      "steig": 971,
      "Pfer": 972,
      "spe": 973,
      "atch": 974,
      "richt": 975,
      "Motor": 976,
      "ema": 977,
      "brauner": 978,
      "Auto": 979,
      "asiat": 980,
      "Sand": 981,
      "kid": 982,
      "las": 983,
      "stage": 984,
      "dern": 985,
      "Tri": 986,
      "abo": 987,
      "iz": 988,
      "gesch": 989,
      "coup": 990,
      "na": 991,
      "carrying": 992,
      "dirt": 993,
      "wach": 994,
      "baby": 995,
      "boat": 996,
      "team": 997,
      "pool": 998,
      "lau": 999,
      "sein": 1000,
      "Er": 1001,
      "mark": 1002,
      "älterer": 1003,
      "kauf": 1004,
      "ette": 1005,
      "light": 1006,
      "raußen": 1007,
      "pain": 1008,
      "pen": 1009,
      "par": 1010,
      "bedeck": 1011,
      "couple": 1012,
      "Jeans": 1013,
      "Bühne": 1014,
      "climb": 1015,
      "tree": 1016,
      "Wo": 1017,
      "each": 1018,
      "outdoor": 1019,
      "coat": 1020,
      "sieht": 1021,
      "draußen": 1022,
      "look": 1023,
      "fema": 1024,
      "Stu": 1025,
      "day": 1026,
      "ult": 1027,
      "mountain": 1028,
      "Brille": 1029,
      "elle": 1030,
      "shop": 1031,
      "Several": 1032,
      "race": 1033,
      "Gehweg": 1034,
      "long": 1035,
      "sign": 1036,
      "hell": 1037,
      "seine": 1038,
      "Skateboard": 1039,
      "ley": 1040,
      "read": 1041,
      "bag": 1042,
      "Baby": 1043,
      "Arbeit": 1044,
      "jeans": 1045,
      "blickt": 1046,
      "wachsen": 1047,
      "ading": 1048,
      "sun": 1049,
      "taking": 1050,
      "Gel": 1051,
      "Mik": 1052,
      "cor": 1053,
      "mic": 1054,
      "stü": 1055,
      "laufen": 1056,
      "ischer": 1057,
      "wagen": 1058,
      "hinunter": 1059,
      "ide": 1060,
      "sle": 1061,
      "ust": 1062,
      "arbeitet": 1063,
      "Mikro": 1064,
      "schlä": 1065,
      "dabei": 1066,
      "Essen": 1067,
      "Hol": 1068,
      "ald": 1069,
      "doing": 1070,
      "ain": 1071,
      "seinen": 1072,
      "ckt": 1073,
      "amm": 1074,
      "ep": 1075,
      "flo": 1076,
      "gi": 1077,
      "ett": 1078,
      "micro": 1079,
      "across": 1080,
      "dark": 1081,
      "ex": 1082,
      "wie": 1083,
      "hoto": 1084,
      "boarder": 1085,
      "win": 1086,
      "eing": 1087,
      "rol": 1088,
      "Ver": 1089,
      "uth": 1090,
      "schn": 1091,
      "watching": 1092,
      "iting": 1093,
      "Schwimm": 1094,
      "lich": 1095,
      "brille": 1096,
      "Hän": 1097,
      "Mu": 1098,
      "ub": 1099,
      "tragen": 1100,
      "Ren": 1101,
      "area": 1102,
      "male": 1103,
      "fest": 1104,
      "angen": 1105,
      "train": 1106,
      "ckey": 1107,
      "Fe": 1108,
      "gegen": 1109,
      "middle": 1110,
      "iv": 1111,
      "sic": 1112,
      "motor": 1113,
      "photo": 1114,
      "ess": 1115,
      "Fr": 1116,
      "fri": 1117,
      "versucht": 1118,
      "io": 1119,
      "lächeln": 1120,
      "Un": 1121,
      "Be": 1122,
      "Bank": 1123,
      "kur": 1124,
      "store": 1125,
      "Baseball": 1126,
      "dar": 1127,
      "cover": 1128,
      "jumps": 1129,
      "fall": 1130,
      "hands": 1131,
      "helmet": 1132,
      "Baum": 1133,
      "Wand": 1134,
      "arbeiten": 1135,
      "zeigt": 1136,
      "cli": 1137,
      "who": 1138,
      "igh": 1139,
      "kletter": 1140,
      "zer": 1141,
      "horse": 1142,
      "dow": 1143,
      "Dame": 1144,
      "swing": 1145,
      "performing": 1146,
      "Holz": 1147,
      "Hel": 1148,
      "Paar": 1149,
      "ath": 1150,
      "ired": 1151,
      "rä": 1152,
      "gestrei": 1153,
      "Bür": 1154,
      "eating": 1155,
      "uck": 1156,
      "machen": 1157,
      "Kl": 1158,
      "Ro": 1159,
      "fit": 1160,
      "tt": 1161,
      "using": 1162,
      "große": 1163,
      "lichen": 1164,
      "lächelt": 1165,
      "female": 1166,
      "being": 1167,
      "ins": 1168,
      "striped": 1169,
      "Hü": 1170,
      "baseball": 1171,
      "orangefarbenen": 1172,
      "guy": 1173,
      "lea": 1174,
      "amil": 1175,
      "color": 1176,
      "Bürger": 1177,
      "Mau": 1178,
      "cre": 1179,
      "iten": 1180,
      "ons": 1181,
      "mouth": 1182,
      "bun": 1183,
      "kot": 1184,
      "scha": 1185,
      "sik": 1186,
      "utz": 1187,
      "music": 1188,
      "rennen": 1189,
      "ihrem": 1190,
      "grün": 1191,
      "football": 1192,
      "pack": 1193,
      "gather": 1194,
      "kes": 1195,
      "put": 1196,
      "ted": 1197,
      "Rad": 1198,
      "pet": 1199,
      "Boot": 1200,
      "ihm": 1201,
      "Gesch": 1202,
      "instru": 1203,
      "Gesicht": 1204,
      "purple": 1205,
      "gh": 1206,
      "pt": 1207,
      "irm": 1208,
      "kleidung": 1209,
      "Bürgersteig": 1210,
      "unst": 1211,
      "Motorrad": 1212,
      "ca": 1213,
      "net": 1214,
      "prep": 1215,
      "aum": 1216,
      "platz": 1217,
      "junges": 1218,
      "towar": 1219,
      "haired": 1220,
      "Hose": 1221,
      "ältere": 1222,
      "Bild": 1223,
      "pol": 1224,
      "ses": 1225,
      "liest": 1226,
      "Ten": 1227,
      "rü": 1228,
      "here": 1229,
      "aper": 1230,
      "Band": 1231,
      "tennis": 1232,
      "anderer": 1233,
      "Trikot": 1234,
      "kom": 1235,
      "vie": 1236,
      "enjo": 1237,
      "posing": 1238,
      "runs": 1239,
      "führt": 1240,
      "window": 1241,
      "Young": 1242,
      "Zu": 1243,
      "dri": 1244,
      "spricht": 1245,
      "unterhalten": 1246,
      "schaft": 1247,
      "Tennis": 1248,
      "sung": 1249,
      "stra": 1250,
      "adult": 1251,
      "hän": 1252,
      "zie": 1253,
      "reading": 1254,
      "ey": 1255,
      "ps": 1256,
      "ser": 1257,
      "bele": 1258,
      "struction": 1259,
      "bal": 1260,
      "part": 1261,
      "use": 1262,
      "lefon": 1263,
      "woo": 1264,
      "past": 1265,
      "ften": 1266,
      "vest": 1267,
      "ffit": 1268,
      "iese": 1269,
      "sunglasses": 1270,
      "flow": 1271,
      "ken": 1272,
      "oth": 1273,
      "pul": 1274,
      "show": 1275,
      "Auf": 1276,
      "Wald": 1277,
      "iet": 1278,
      "kar": 1279,
      "pass": 1280,
      "stick": 1281,
      "weißem": 1282,
      "Haaren": 1283,
      "drei": 1284,
      "cean": 1285,
      "Bahn": 1286,
      "clothing": 1287,
      "three": 1288,
      "bow": 1289,
      "players": 1290,
      "indet": 1291,
      "microphone": 1292,
      "Musik": 1293,
      "Spieler": 1294,
      "Hosen": 1295,
      "There": 1296,
      "basketball": 1297,
      "uer": 1298,
      "aut": 1299,
      "ütze": 1300,
      "kn": 1301,
      "swimm": 1302,
      "covered": 1303,
      "Kü": 1304,
      "line": 1305,
      "mar": 1306,
      "zum": 1307,
      "toy": 1308,
      "haar": 1309,
      "Meer": 1310,
      "fish": 1311,
      "ßt": 1312,
      "puter": 1313,
      "betra": 1314,
      "ocean": 1315,
      "wood": 1316,
      "grauen": 1317,
      "Kunst": 1318,
      "ßer": 1319,
      "Sonnenbrille": 1320,
      "Basketball": 1321,
      "watches": 1322,
      "cloth": 1323,
      "Rest": 1324,
      "Pferd": 1325,
      "fl": 1326,
      "itet": 1327,
      "she": 1328,
      "during": 1329,
      "restaurant": 1330,
      "dancing": 1331,
      "climbing": 1332,
      "motorc": 1333,
      "Eis": 1334,
      "wä": 1335,
      "Fris": 1336,
      "cap": 1337,
      "hill": 1338,
      "blauem": 1339,
      "bright": 1340,
      "gekleidete": 1341,
      "kids": 1342,
      "seiner": 1343,
      "ars": 1344,
      "geb": 1345,
      "derly": 1346,
      "hang": 1347,
      "ement": 1348,
      "Football": 1349,
      "Tag": 1350,
      "ces": 1351,
      "round": 1352,
      "beob": 1353,
      "gend": 1354,
      "shirts": 1355,
      "Felsen": 1356,
      "again": 1357,
      "Ko": 1358,
      "La": 1359,
      "gg": 1360,
      "Zuschau": 1361,
      "Pol": 1362,
      "anz": 1363,
      "asch": 1364,
      "Gelän": 1365,
      "against": 1366,
      "Helm": 1367,
      "ev": 1368,
      "len": 1369,
      "open": 1370,
      "rides": 1371,
      "umbre": 1372,
      "skateboard": 1373,
      "singt": 1374,
      "klettert": 1375,
      "catch": 1376,
      "high": 1377,
      "ool": 1378,
      "ored": 1379,
      "ition": 1380,
      "rain": 1381,
      "smile": 1382,
      "ffiti": 1383,
      "Rol": 1384,
      "fol": 1385,
      "elderly": 1386,
      "ihnen": 1387,
      "Erwachsen": 1388,
      "Pul": 1389,
      "sst": 1390,
      "schu": 1391,
      "weiße": 1392,
      "arbeiter": 1393,
      "leyball": 1394,
      "Ru": 1395,
      "no": 1396,
      "Mantel": 1397,
      "dies": 1398,
      "dunkel": 1399,
      "Berg": 1400,
      "Fen": 1401,
      "Rei": 1402,
      "kick": 1403,
      "dis": 1404,
      "tet": 1405,
      "ated": 1406,
      "blo": 1407,
      "very": 1408,
      "Shorts": 1409,
      "market": 1410,
      "fel": 1411,
      "book": 1412,
      "One": 1413,
      "stum": 1414,
      "posiert": 1415,
      "trees": 1416,
      "about": 1417,
      "wooden": 1418,
      "aun": 1419,
      "ix": 1420,
      "uchen": 1421,
      "bee": 1422,
      "trink": 1423,
      "appe": 1424,
      "skate": 1425,
      "having": 1426,
      "darauf": 1427,
      "Fenster": 1428,
      "Pf": 1429,
      "plan": 1430,
      "öff": 1431,
      "emand": 1432,
      "asche": 1433,
      "floor": 1434,
      "ien": 1435,
      "lin": 1436,
      "utsch": 1437,
      "lover": 1438,
      "waiting": 1439,
      "örper": 1440,
      "Feuer": 1441,
      "dge": 1442,
      "anzug": 1443,
      "they": 1444,
      "Mikrofon": 1445,
      "Restaurant": 1446,
      "Ch": 1447,
      "vel": 1448,
      "truck": 1449,
      "blauer": 1450,
      "wirft": 1451,
      "befindet": 1452,
      "Vor": 1453,
      "cut": 1454,
      "ial": 1455,
      "mm": 1456,
      "zur": 1457,
      "Blumen": 1458,
      "swimming": 1459,
      "Mit": 1460,
      "alter": 1461,
      "ampf": 1462,
      "urn": 1463,
      "lip": 1464,
      "getting": 1465,
      "colorful": 1466,
      "gle": 1467,
      "ance": 1468,
      "essen": 1469,
      "costum": 1470,
      "Her": 1471,
      "ac": 1472,
      "workers": 1473,
      "hü": 1474,
      "aning": 1475,
      "asen": 1476,
      "lap": 1477,
      "sha": 1478,
      "cour": 1479,
      "trying": 1480,
      "Spielzeug": 1481,
      "construction": 1482,
      "Geschäft": 1483,
      "sel": 1484,
      "cket": 1485,
      "ash": 1486,
      "igar": 1487,
      "cart": 1488,
      "bereitet": 1489,
      "motorcycle": 1490,
      "Fl": 1491,
      "pie": 1492,
      "box": 1493,
      "fire": 1494,
      "ena": 1495,
      "atue": 1496,
      "denen": 1497,
      "schwarzem": 1498,
      "Bade": 1499,
      "night": 1500,
      "ycli": 1501,
      "isst": 1502,
      "Schild": 1503,
      "gelb": 1504,
      "hnt": 1505,
      "versamm": 1506,
      "gekleideter": 1507,
      "busy": 1508,
      "Klein": 1509,
      "yclist": 1510,
      "cell": 1511,
      "kit": 1512,
      "son": 1513,
      "chten": 1514,
      "singing": 1515,
      "Regen": 1516,
      "Das": 1517,
      "kind": 1518,
      "sehr": 1519,
      "Schu": 1520,
      "fence": 1521,
      "springen": 1522,
      "Woman": 1523,
      "rung": 1524,
      "luss": 1525,
      "This": 1526,
      "az": 1527,
      "body": 1528,
      "new": 1529,
      "Pullover": 1530,
      "Raum": 1531,
      "du": 1532,
      "ka": 1533,
      "stair": 1534,
      "asse": 1535,
      "mitten": 1536,
      "langen": 1537,
      "rotem": 1538,
      "Met": 1539,
      "land": 1540,
      "oder": 1541,
      "pre": 1542,
      "ries": 1543,
      "path": 1544,
      "Weg": 1545,
      "Arbeiter": 1546,
      "Zeit": 1547,
      "less": 1548,
      "aten": 1549,
      "roter": 1550,
      "coo": 1551,
      "Trep": 1552,
      "gar": 1553,
      "ors": 1554,
      "ride": 1555,
      "liche": 1556,
      "surf": 1557,
      "compet": 1558,
      "De": 1559,
      "sli": 1560,
      "zw": 1561,
      "laying": 1562,
      "licher": 1563,
      "Fre": 1564,
      "iele": 1565,
      "tern": 1566,
      "Männern": 1567,
      "Anzug": 1568,
      "Some": 1569,
      "Wiese": 1570,
      "big": 1571,
      "dler": 1572,
      "flag": 1573,
      "lehnt": 1574,
      "unden": 1575,
      "schwarze": 1576,
      "Sport": 1577,
      "hats": 1578,
      "Kindern": 1579,
      "gestreiften": 1580,
      "Wei": 1581,
      "becken": 1582,
      "telefon": 1583,
      "wartet": 1584,
      "drink": 1585,
      "ele": 1586,
      "körper": 1587,
      "paper": 1588,
      "ject": 1589,
      "sil": 1590,
      "slee": 1591,
      "clothes": 1592,
      "gem": 1593,
      "inside": 1594,
      "river": 1595,
      "Schutz": 1596,
      "ikan": 1597,
      "werden": 1598,
      "others": 1599,
      "kitchen": 1600,
      "dra": 1601,
      "ko": 1602,
      "lla": 1603,
      "mach": 1604,
      "sell": 1605,
      "hockey": 1606,
      "grassy": 1607,
      "ünf": 1608,
      "Frisbee": 1609,
      "cellphone": 1610,
      "Sur": 1611,
      "ym": 1612,
      "chtet": 1613,
      "making": 1614,
      "surround": 1615,
      "Mark": 1616,
      "iter": 1617,
      "whe": 1618,
      "Arm": 1619,
      "voller": 1620,
      "posieren": 1621,
      "Rucks": 1622,
      "Fluss": 1623,
      "Ne": 1624,
      "Ob": 1625,
      "kan": 1626,
      "ini": 1627,
      "ders": 1628,
      "outfit": 1629,
      "backpack": 1630,
      "brick": 1631,
      "push": 1632,
      "trick": 1633,
      "Bluse": 1634,
      "Maul": 1635,
      "Buch": 1636,
      "geben": 1637,
      "eich": 1638,
      "takes": 1639,
      "track": 1640,
      "Oberkörper": 1641,
      "Stuhl": 1642,
      "lei": 1643,
      "ican": 1644,
      "metal": 1645,
      "laugh": 1646,
      "umbrella": 1647,
      "Kar": 1648,
      "Wa": 1649,
      "det": 1650,
      "app": 1651,
      "änger": 1652,
      "achtet": 1653,
      "immer": 1654,
      "full": 1655,
      "kauft": 1656,
      "towards": 1657,
      "beleb": 1658,
      "Mo": 1659,
      "Sto": 1660,
      "oben": 1661,
      "viel": 1662,
      "ates": 1663,
      "atshirt": 1664,
      "Stein": 1665,
      "Hügel": 1666,
      "Fünf": 1667,
      "yard": 1668,
      "stone": 1669,
      "ellen": 1670,
      "liegen": 1671,
      "enjoying": 1672,
      "zieht": 1673,
      "Um": 1674,
      "Viele": 1675,
      "ny": 1676,
      "phon": 1677,
      "schnei": 1678,
      "Pro": 1679,
      "To": 1680,
      "warten": 1681,
      "überqu": 1682,
      "colored": 1683,
      "Rennen": 1684,
      "igarette": 1685,
      "inden": 1686,
      "schla": 1687,
      "schirm": 1688,
      "ugg": 1689,
      "roller": 1690,
      "Metall": 1691,
      "lit": 1692,
      "tank": 1693,
      "ese": 1694,
      "sport": 1695,
      "cow": 1696,
      "dance": 1697,
      "tanzen": 1698,
      "ready": 1699,
      "betrachtet": 1700,
      "Kostü": 1701,
      "piece": 1702,
      "hard": 1703,
      "hör": 1704,
      "ian": 1705,
      "ierten": 1706,
      "wheel": 1707,
      "ban": 1708,
      "ry": 1709,
      "genie": 1710,
      "house": 1711,
      "Handy": 1712,
      "dunkl": 1713,
      "zwischen": 1714,
      "Five": 1715,
      "Snow": 1716,
      "ücken": 1717,
      "star": 1718,
      "äumen": 1719,
      "Bet": 1720,
      "kis": 1721,
      "ät": 1722,
      "lake": 1723,
      "fee": 1724,
      "bahn": 1725,
      "äufer": 1726,
      "blonde": 1727,
      "drum": 1728,
      "painting": 1729,
      "Afri": 1730,
      "Gra": 1731,
      "Haus": 1732,
      "Pap": 1733,
      "ücke": 1734,
      "reibt": 1735,
      "Leuten": 1736,
      "drin": 1737,
      "schläft": 1738,
      "So": 1739,
      "kü": 1740,
      "pra": 1741,
      "reitet": 1742,
      "ise": 1743,
      "tent": 1744,
      "häut": 1745,
      "fore": 1746,
      "amerikan": 1747,
      "paar": 1748,
      "sweater": 1749,
      "Child": 1750,
      "Mütze": 1751,
      "Seil": 1752,
      "sub": 1753,
      "ramp": 1754,
      "utter": 1755,
      "zeit": 1756,
      "Bauarbeiter": 1757,
      "photogra": 1758,
      "emp": 1759,
      "boot": 1760,
      "several": 1761,
      "Schn": 1762,
      "isten": 1763,
      "above": 1764,
      "Stock": 1765,
      "Amer": 1766,
      "cal": 1767,
      "cur": 1768,
      "kor": 1769,
      "alten": 1770,
      "row": 1771,
      "mann": 1772,
      "test": 1773,
      "haben": 1774,
      "immt": 1775,
      "Out": 1776,
      "bel": 1777,
      "mt": 1778,
      "led": 1779,
      "deo": 1780,
      "wehr": 1781,
      "lila": 1782,
      "going": 1783,
      "Händen": 1784,
      "enager": 1785,
      "pad": 1786,
      "onto": 1787,
      "many": 1788,
      "bedeckten": 1789,
      "beobachtet": 1790,
      "Kleinkind": 1791,
      "Markt": 1792,
      "rope": 1793,
      "ork": 1794,
      "miteinander": 1795,
      "Schul": 1796,
      "herunter": 1797,
      "snowy": 1798,
      "Bäumen": 1799,
      "Ka": 1800,
      "del": 1801,
      "män": 1802,
      "rit": 1803,
      "chter": 1804,
      "eman": 1805,
      "ied": 1806,
      "iegel": 1807,
      "wave": 1808,
      "Ski": 1809,
      "worker": 1810,
      "shopping": 1811,
      "Rucksack": 1812,
      "Co": 1813,
      "Famil": 1814,
      "hu": 1815,
      "llt": 1816,
      "ron": 1817,
      "versch": 1818,
      "grill": 1819,
      "poin": 1820,
      "graf": 1821,
      "hlen": 1822,
      "asian": 1823,
      "tanzt": 1824,
      "uniforms": 1825,
      "surrounded": 1826,
      "fangen": 1827,
      "nack": 1828,
      "ellt": 1829,
      "schö": 1830,
      "like": 1831,
      "ihrer": 1832,
      "crowded": 1833,
      "Renn": 1834,
      "Radfahrer": 1835,
      "Ger": 1836,
      "Land": 1837,
      "Zaun": 1838,
      "stic": 1839,
      "schnee": 1840,
      "ief": 1841,
      "Gewä": 1842,
      "geschäft": 1843,
      "Gro": 1844,
      "Zug": 1845,
      "stein": 1846,
      "leg": 1847,
      "gear": 1848,
      "bed": 1849,
      "amen": 1850,
      "pole": 1851,
      "Aus": 1852,
      "schiebt": 1853,
      "smiles": 1854,
      "Com": 1855,
      "En": 1856,
      "dition": 1857,
      "rän": 1858,
      "beside": 1859,
      "outdoors": 1860,
      "Schwimmbecken": 1861,
      "friend": 1862,
      "instrumen": 1863,
      "aschine": 1864,
      "männ": 1865,
      "Bl": 1866,
      "frei": 1867,
      "igt": 1868,
      "vom": 1869,
      "wand": 1870,
      "tod": 1871,
      "convers": 1872,
      "See": 1873,
      "swim": 1874,
      "befinden": 1875,
      "adults": 1876,
      "Poliz": 1877,
      "event": 1878,
      "bir": 1879,
      "famil": 1880,
      "hmen": 1881,
      "ges": 1882,
      "lot": 1883,
      "Gegen": 1884,
      "altung": 1885,
      "drinking": 1886,
      "Gewäss": 1887,
      "Pu": 1888,
      "Einkauf": 1889,
      "hose": 1890,
      "orangefarben": 1891,
      "shoes": 1892,
      "Get": 1893,
      "Or": 1894,
      "Rücken": 1895,
      "class": 1896,
      "kä": 1897,
      "scar": 1898,
      "tem": 1899,
      "ven": 1900,
      "sion": 1901,
      "ski": 1902,
      "aged": 1903,
      "bridge": 1904,
      "after": 1905,
      "Küche": 1906,
      "bur": 1907,
      "bble": 1908,
      "gol": 1909,
      "num": 1910,
      "raft": 1911,
      "Schlag": 1912,
      "Sprung": 1913,
      "lassen": 1914,
      "Seite": 1915,
      "flowers": 1916,
      "Zuschauer": 1917,
      "Beton": 1918,
      "Sof": 1919,
      "iful": 1920,
      "wel": 1921,
      "anst": 1922,
      "ond": 1923,
      "spaz": 1924,
      "verschie": 1925,
      "läche": 1926,
      "fountain": 1927,
      "arms": 1928,
      "gathered": 1929,
      "autiful": 1930,
      "Bik": 1931,
      "Cow": 1932,
      "Welle": 1933,
      "nimmt": 1934,
      "stück": 1935,
      "umgeben": 1936,
      "Schau": 1937,
      "Instru": 1938,
      "kurzen": 1939,
      "hanging": 1940,
      "Bus": 1941,
      "Flag": 1942,
      "away": 1943,
      "gym": 1944,
      "tim": 1945,
      "vier": 1946,
      "ines": 1947,
      "legt": 1948,
      "too": 1949,
      "foto": 1950,
      "hängt": 1951,
      "feld": 1952,
      "subway": 1953,
      "Kon": 1954,
      "Lo": 1955,
      "mel": 1956,
      "leap": 1957,
      "ween": 1958,
      "skirt": 1959,
      "tradition": 1960,
      "Treppe": 1961,
      "African": 1962,
      "family": 1963,
      "Gem": 1964,
      "Ha": 1965,
      "stä": 1966,
      "lachen": 1967,
      "Schü": 1968,
      "sky": 1969,
      "volleyball": 1970,
      "preparing": 1971,
      "haarige": 1972,
      "Pla": 1973,
      "Wer": 1974,
      "bs": 1975,
      "bat": 1976,
      "gang": 1977,
      "kaufen": 1978,
      "leaning": 1979,
      "schw": 1980,
      "schein": 1981,
      "schwimm": 1982,
      "steps": 1983,
      "verkauft": 1984,
      "ballo": 1985,
      "tables": 1986,
      "object": 1987,
      "costume": 1988,
      "Familie": 1989,
      "toddler": 1990,
      "Sa": 1991,
      "Tor": 1992,
      "bank": 1993,
      "ient": 1994,
      "mitt": 1995,
      "Many": 1996,
      "offen": 1997,
      "beautiful": 1998,
      "short": 1999,
      "gent": 2000,
      "take": 2001,
      "offic": 2002,
      "computer": 2003,
      "athon": 2004,
      "view": 2005,
      "fishing": 2006,
      "sleeping": 2007,
      "Wagen": 2008,
      "schneidet": 2009,
      "just": 2010,
      "does": 2011,
      "gerade": 2012,
      "trail": 2013,
      "make": 2014,
      "guys": 2015,
      "rosafarbenen": 2016,
      "trinkt": 2017,
      "versammelt": 2018,
      "Children": 2019,
      "Geträn": 2020,
      "arn": 2021,
      "statue": 2022,
      "plaid": 2023,
      "try": 2024,
      "aussehen": 2025,
      "bunten": 2026,
      "machine": 2027,
      "Papier": 2028,
      "American": 2029,
      "ium": 2030,
      "ls": 2031,
      "plat": 2032,
      "ved": 2033,
      "benut": 2034,
      "Schwarz": 2035,
      "stairs": 2036,
      "ihn": 2037,
      "pit": 2038,
      "attoo": 2039,
      "ops": 2040,
      "ummer": 2041,
      "isches": 2042,
      "four": 2043,
      "court": 2044,
      "kämp": 2045,
      "anstaltung": 2046,
      "Do": 2047,
      "Richt": 2048,
      "cup": 2049,
      "hnen": 2050,
      "mat": 2051,
      "malt": 2052,
      "zo": 2053,
      "einige": 2054,
      "rote": 2055,
      "rail": 2056,
      "mehr": 2057,
      "chairs": 2058,
      "glass": 2059,
      "hem": 2060,
      "ki": 2061,
      "nel": 2062,
      "rin": 2063,
      "zimmer": 2064,
      "gruppe": 2065,
      "tag": 2066,
      "runnen": 2067,
      "graffiti": 2068,
      "police": 2069,
      "telefoniert": 2070,
      "spazieren": 2071,
      "cam": 2072,
      "hö": 2073,
      "hut": 2074,
      "mas": 2075,
      "wet": 2076,
      "chas": 2077,
      "stung": 2078,
      "mittel": 2079,
      "hebt": 2080,
      "tritt": 2081,
      "pose": 2082,
      "smo": 2083,
      "Teenager": 2084,
      "asiatische": 2085,
      "belebten": 2086,
      "Computer": 2087,
      "ast": 2088,
      "equ": 2089,
      "kon": 2090,
      "alen": 2091,
      "rocks": 2092,
      "wed": 2093,
      "achten": 2094,
      "großer": 2095,
      "shirtless": 2096,
      "ausge": 2097,
      "forest": 2098,
      "halb": 2099,
      "ious": 2100,
      "balan": 2101,
      "schuhen": 2102,
      "selling": 2103,
      "pract": 2104,
      "Vol": 2105,
      "hit": 2106,
      "ja": 2107,
      "jers": 2108,
      "jemand": 2109,
      "tall": 2110,
      "ünst": 2111,
      "Fußballspieler": 2112,
      "setting": 2113,
      "boarding": 2114,
      "sunny": 2115,
      "schlägt": 2116,
      "Reihe": 2117,
      "schwimmt": 2118,
      "fle": 2119,
      "hil": 2120,
      "mart": 2121,
      "eten": 2122,
      "lies": 2123,
      "immel": 2124,
      "weißes": 2125,
      "Team": 2126,
      "blicken": 2127,
      "Rock": 2128,
      "sonn": 2129,
      "Gewässer": 2130,
      "Mar": 2131,
      "Rasen": 2132,
      "Ty": 2133,
      "fliegt": 2134,
      "match": 2135,
      "chs": 2136,
      "ats": 2137,
      "scht": 2138,
      "racing": 2139,
      "hohen": 2140,
      "eller": 2141,
      "kehr": 2142,
      "Kopfbedeck": 2143,
      "Autos": 2144,
      "parade": 2145,
      "instrument": 2146,
      "kommt": 2147,
      "schneebedeckten": 2148,
      "freiem": 2149,
      "scarf": 2150,
      "Mutter": 2151,
      "Tasche": 2152,
      "bor": 2153,
      "dt": 2154,
      "tur": 2155,
      "einigen": 2156,
      "blow": 2157,
      "both": 2158,
      "listen": 2159,
      "foot": 2160,
      "bereiten": 2161,
      "corner": 2162,
      "grünem": 2163,
      "putting": 2164,
      "utsche": 2165,
      "Zeitung": 2166,
      "vielen": 2167,
      "equip": 2168,
      "Bart": 2169,
      "cr": 2170,
      "hing": 2171,
      "kne": 2172,
      "pick": 2173,
      "tro": 2174,
      "ally": 2175,
      "blik": 2176,
      "rift": 2177,
      "teen": 2178,
      "lässt": 2179,
      "throw": 2180,
      "throwing": 2181,
      "bikes": 2182,
      "hinauf": 2183,
      "Gebäudes": 2184,
      "Brücke": 2185,
      "Hände": 2186,
      "straße": 2187,
      "flower": 2188,
      "Feuerwehr": 2189,
      "pushing": 2190,
      "gentl": 2191,
      "sonnigen": 2192,
      "blikum": 2193,
      "Himmel": 2194,
      "Sie": 2195,
      "dist": 2196,
      "pat": 2197,
      "ügen": 2198,
      "alte": 2199,
      "roll": 2200,
      "cking": 2201,
      "olin": 2202,
      "blic": 2203,
      "befest": 2204,
      "span": 2205,
      "have": 2206,
      "jacke": 2207,
      "public": 2208,
      "between": 2209,
      "Unter": 2210,
      "slide": 2211,
      "Publikum": 2212,
      "fotograf": 2213,
      "zogen": 2214,
      "Alter": 2215,
      "Platz": 2216,
      "hic": 2217,
      "nä": 2218,
      "ching": 2219,
      "ladies": 2220,
      "dent": 2221,
      "assen": 2222,
      "couch": 2223,
      "Hemden": 2224,
      "scen": 2225,
      "stuhl": 2226,
      "rüstung": 2227,
      "party": 2228,
      "Geländer": 2229,
      "laughing": 2230,
      "time": 2231,
      "kämpfen": 2232,
      "Richtung": 2233,
      "ünstler": 2234,
      "Ju": 2235,
      "Kampf": 2236,
      "Ma": 2237,
      "Mü": 2238,
      "Par": 2239,
      "flip": 2240,
      "link": 2241,
      "beard": 2242,
      "groß": 2243,
      "vert": 2244,
      "fruit": 2245,
      "cture": 2246,
      "someone": 2247,
      "instruments": 2248,
      "Cowboy": 2249,
      "equipment": 2250,
      "Gar": 2251,
      "fight": 2252,
      "glo": 2253,
      "hot": 2254,
      "kö": 2255,
      "squ": 2256,
      "vi": 2257,
      "unten": 2258,
      "station": 2259,
      "lad": 2260,
      "where": 2261,
      "ned": 2262,
      "zuschauen": 2263,
      "vehic": 2264,
      "dien": 2265,
      "Hoch": 2266,
      "jekt": 2267,
      "shoul": 2268,
      "pictures": 2269,
      "Weste": 2270,
      "ärt": 2271,
      "dunklen": 2272,
      "Graffiti": 2273,
      "Bar": 2274,
      "mil": 2275,
      "winter": 2276,
      "empt": 2277,
      "school": 2278,
      "lage": 2279,
      "bott": 2280,
      "dock": 2281,
      "plastic": 2282,
      "blaue": 2283,
      "spea": 2284,
      "markt": 2285,
      "woods": 2286,
      "Schutzhel": 2287,
      "Bier": 2288,
      "Kan": 2289,
      "clu": 2290,
      "äum": 2291,
      "erlea": 2292,
      "str": 2293,
      "stop": 2294,
      "reach": 2295,
      "ungs": 2296,
      "which": 2297,
      "playground": 2298,
      "poses": 2299,
      "works": 2300,
      "Spielplatz": 2301,
      "concre": 2302,
      "werk": 2303,
      "voll": 2304,
      "sweatshirt": 2305,
      "phones": 2306,
      "Kopfbedeckung": 2307,
      "concrete": 2308,
      "Che": 2309,
      "Hof": 2310,
      "Jo": 2311,
      "din": 2312,
      "dig": 2313,
      "innen": 2314,
      "ause": 2315,
      "dire": 2316,
      "Augen": 2317,
      "illed": 2318,
      "uses": 2319,
      "asiatischer": 2320,
      "Erwachsene": 2321,
      "number": 2322,
      "Pool": 2323,
      "gold": 2324,
      "hi": 2325,
      "ems": 2326,
      "Mannes": 2327,
      "midair": 2328,
      "attemp": 2329,
      "reads": 2330,
      "Flug": 2331,
      "mittler": 2332,
      "fet": 2333,
      "öp": 2334,
      "emen": 2335,
      "stad": 2336,
      "els": 2337,
      "bear": 2338,
      "Leben": 2339,
      "ctor": 2340,
      "blondes": 2341,
      "shovel": 2342,
      "führen": 2343,
      "ival": 2344,
      "padd": 2345,
      "Fisch": 2346,
      "Winter": 2347,
      "happ": 2348,
      "inger": 2349,
      "alle": 2350,
      "atten": 2351,
      "ators": 2352,
      "coun": 2353,
      "cope": 2354,
      "bucket": 2355,
      "ängt": 2356,
      "davon": 2357,
      "suits": 2358,
      "karierten": 2359,
      "cowboy": 2360,
      "Ab": 2361,
      "Dach": 2362,
      "fä": 2363,
      "fläche": 2364,
      "grei": 2365,
      "gner": 2366,
      "enter": 2367,
      "unnel": 2368,
      "stik": 2369,
      "sche": 2370,
      "beer": 2371,
      "ute": 2372,
      "ampe": 2373,
      "right": 2374,
      "Schirm": 2375,
      "zusehen": 2376,
      "lick": 2377,
      "braune": 2378,
      "Hockey": 2379,
      "Skate": 2380,
      "mehrere": 2381,
      "shore": 2382,
      "spect": 2383,
      "dunkelhäut": 2384,
      "Freund": 2385,
      "überqueren": 2386,
      "genießt": 2387,
      "verschne": 2388,
      "Schaukel": 2389,
      "distance": 2390,
      "Glas": 2391,
      "Jemand": 2392,
      "Kre": 2393,
      "bare": 2394,
      "home": 2395,
      "vend": 2396,
      "anim": 2397,
      "auto": 2398,
      "aschen": 2399,
      "site": 2400,
      "nehmen": 2401,
      "Stück": 2402,
      "seated": 2403,
      "Schla": 2404,
      "ids": 2405,
      "rush": 2406,
      "repar": 2407,
      "Indi": 2408,
      "attire": 2409,
      "bags": 2410,
      "Mauer": 2411,
      "cream": 2412,
      "toward": 2413,
      "Kunststück": 2414,
      "Roller": 2415,
      "Decke": 2416,
      "hemd": 2417,
      "Jugend": 2418,
      "Far": 2419,
      "Sold": 2420,
      "hik": 2421,
      "lying": 2422,
      "yo": 2423,
      "left": 2424,
      "lacht": 2425,
      "laster": 2426,
      "what": 2427,
      "place": 2428,
      "sca": 2429,
      "scre": 2430,
      "brett": 2431,
      "ideo": 2432,
      "gibt": 2433,
      "fallen": 2434,
      "gestreift": 2435,
      "gging": 2436,
      "Zuschauern": 2437,
      "städt": 2438,
      "mittleren": 2439,
      "Lebens": 2440,
      "Bal": 2441,
      "Blick": 2442,
      "Klei": 2443,
      "cert": 2444,
      "filled": 2445,
      "vio": 2446,
      "schrift": 2447,
      "bull": 2448,
      "gelber": 2449,
      "vests": 2450,
      "öffent": 2451,
      "lined": 2452,
      "cutting": 2453,
      "cooking": 2454,
      "Outfit": 2455,
      "Gemü": 2456,
      "benutzt": 2457,
      "Volleyball": 2458,
      "Little": 2459,
      "Tür": 2460,
      "bem": 2461,
      "basket": 2462,
      "ham": 2463,
      "med": 2464,
      "eng": 2465,
      "orangen": 2466,
      "schüt": 2467,
      "raut": 2468,
      "Menge": 2469,
      "Mensch": 2470,
      "buildings": 2471,
      "break": 2472,
      "Baseballspieler": 2473,
      "cliff": 2474,
      "pulling": 2475,
      "newsp": 2476,
      "Surfer": 2477,
      "Alters": 2478,
      "Ak": 2479,
      "Ol": 2480,
      "gänger": 2481,
      "haus": 2482,
      "sort": 2483,
      "za": 2484,
      "anten": 2485,
      "strei": 2486,
      "Einige": 2487,
      "alley": 2488,
      "blank": 2489,
      "rider": 2490,
      "Schür": 2491,
      "lift": 2492,
      "streckt": 2493,
      "unterhält": 2494,
      "treten": 2495,
      "Uniform": 2496,
      "rädern": 2497,
      "Obst": 2498,
      "Girl": 2499,
      "Mund": 2500,
      "ffer": 2501,
      "gut": 2502,
      "mon": 2503,
      "tattoo": 2504,
      "var": 2505,
      "wrest": 2506,
      "stellt": 2507,
      "roof": 2508,
      "gew": 2509,
      "immen": 2510,
      "zusieht": 2511,
      "vege": 2512,
      "skop": 2513,
      "crossing": 2514,
      "nahe": 2515,
      "haariger": 2516,
      "appears": 2517,
      "practic": 2518,
      "großes": 2519,
      "bis": 2520,
      "but": 2521,
      "erin": 2522,
      "außer": 2523,
      "sta": 2524,
      "zuschaut": 2525,
      "edge": 2526,
      "nebeneinander": 2527,
      "Fußgänger": 2528,
      "mountains": 2529,
      "showing": 2530,
      "Reifen": 2531,
      "Mitte": 2532,
      "Weihn": 2533,
      "Sofa": 2534,
      "scheint": 2535,
      "blanket": 2536,
      "Kr": 2537,
      "Ufer": 2538,
      "cu": 2539,
      "nicht": 2540,
      "pot": 2541,
      "tball": 2542,
      "ühr": 2543,
      "unt": 2544,
      "arts": 2545,
      "gebäu": 2546,
      "offee": 2547,
      "oph": 2548,
      "bathing": 2549,
      "structure": 2550,
      "mult": 2551,
      "afri": 2552,
      "photograph": 2553,
      "boots": 2554,
      "verschieden": 2555,
      "Bu": 2556,
      "Chin": 2557,
      "Dies": 2558,
      "Kor": 2559,
      "Wett": 2560,
      "Ziegel": 2561,
      "bring": 2562,
      "fits": 2563,
      "fix": 2564,
      "kampf": 2565,
      "os": 2566,
      "pp": 2567,
      "sent": 2568,
      "tie": 2569,
      "vis": 2570,
      "erne": 2571,
      "auer": 2572,
      "shot": 2573,
      "achts": 2574,
      "Grill": 2575,
      "bubble": 2576,
      "snowboarder": 2577,
      "nearby": 2578,
      "nachts": 2579,
      "dresses": 2580,
      "performs": 2581,
      "Sonne": 2582,
      "Fotos": 2583,
      "horses": 2584,
      "Women": 2585,
      "kniet": 2586,
      "Roll": 2587,
      "skateboarder": 2588,
      "Einkaufs": 2589,
      "Schlagzeug": 2590,
      "jersey": 2591,
      "Typ": 2592,
      "country": 2593,
      "Gemüse": 2594,
      "Nacht": 2595,
      "Tro": 2596,
      "Zigarette": 2597,
      "av": 2598,
      "jungen": 2599,
      "pile": 2600,
      "rt": 2601,
      "inf": 2602,
      "aren": 2603,
      "ares": 2604,
      "rela": 2605,
      "raucht": 2606,
      "spre": 2607,
      "urch": 2608,
      "sicht": 2609,
      "apron": 2610,
      "carries": 2611,
      "few": 2612,
      "versuchen": 2613,
      "Art": 2614,
      "hinten": 2615,
      "Asiat": 2616,
      "driving": 2617,
      "Herr": 2618,
      "yclists": 2619,
      "friends": 2620,
      "Gegenstand": 2621,
      "violet": 2622,
      "Braut": 2623,
      "Con": 2624,
      "Fa": 2625,
      "Hals": 2626,
      "Ker": 2627,
      "Kra": 2628,
      "Nummer": 2629,
      "bild": 2630,
      "bärt": 2631,
      "ear": 2632,
      "mask": 2633,
      "ery": 2634,
      "cker": 2635,
      "beige": 2636,
      "zeu": 2637,
      "key": 2638,
      "biker": 2639,
      "iges": 2640,
      "uchten": 2641,
      "goal": 2642,
      "teams": 2643,
      "kurz": 2644,
      "leaves": 2645,
      "cake": 2646,
      "bowling": 2647,
      "beobachten": 2648,
      "trinken": 2649,
      "utscht": 2650,
      "Group": 2651,
      "mehreren": 2652,
      "Bett": 2653,
      "He": 2654,
      "Part": 2655,
      "Zelt": 2656,
      "cigarette": 2657,
      "fängt": 2658,
      "mir": 2659,
      "sol": 2660,
      "ty": 2661,
      "imer": 2662,
      "boo": 2663,
      "urban": 2664,
      "dents": 2665,
      "Schal": 2666,
      "cars": 2667,
      "feet": 2668,
      "farbener": 2669,
      "Armen": 2670,
      "mud": 2671,
      "parked": 2672,
      "gogg": 2673,
      "paint": 2674,
      "painted": 2675,
      "Veranstaltung": 2676,
      "Pfad": 2677,
      "Läufer": 2678,
      "Tau": 2679,
      "bb": 2680,
      "biet": 2681,
      "fun": 2682,
      "fre": 2683,
      "hund": 2684,
      "mother": 2685,
      "pl": 2686,
      "turn": 2687,
      "wr": 2688,
      "schm": 2689,
      "railing": 2690,
      "Mannschaft": 2691,
      "how": 2692,
      "haki": 2693,
      "farbenfro": 2694,
      "talks": 2695,
      "werfen": 2696,
      "Rodeo": 2697,
      "Trikots": 2698,
      "display": 2699,
      "Snowboarder": 2700,
      "Flagge": 2701,
      "vendor": 2702,
      "öffentlichen": 2703,
      "goggles": 2704,
      "Back": 2705,
      "Ferne": 2706,
      "Spe": 2707,
      "hof": 2708,
      "ifor": 2709,
      "rutscht": 2710,
      "ton": 2711,
      "zert": 2712,
      "einsam": 2713,
      "stelle": 2714,
      "ely": 2715,
      "rap": 2716,
      "weit": 2717,
      "Stü": 2718,
      "Stange": 2719,
      "beide": 2720,
      "geln": 2721,
      "wait": 2722,
      "Handt": 2723,
      "rotes": 2724,
      "lasche": 2725,
      "Stufen": 2726,
      "betrachten": 2727,
      "flying": 2728,
      "gleich": 2729,
      "drums": 2730,
      "smoking": 2731,
      "martial": 2732,
      "Garten": 2733,
      "vehicle": 2734,
      "bottle": 2735,
      "verschneiten": 2736,
      "Schürze": 2737,
      "Weihnachts": 2738,
      "Bow": 2739,
      "Kap": 2740,
      "Rampe": 2741,
      "Sei": 2742,
      "Wanderer": 2743,
      "bers": 2744,
      "brush": 2745,
      "coffee": 2746,
      "ssi": 2747,
      "üst": 2748,
      "ches": 2749,
      "beu": 2750,
      "skleid": 2751,
      "fern": 2752,
      "grüner": 2753,
      "concert": 2754,
      "surfer": 2755,
      "rocky": 2756,
      "Gehsteig": 2757,
      "kommen": 2758,
      "eyes": 2759,
      "Laden": 2760,
      "Vorder": 2761,
      "Sit": 2762,
      "eth": 2763,
      "ous": 2764,
      "por": 2765,
      "eling": 2766,
      "isen": 2767,
      "orient": 2768,
      "spra": 2769,
      "splas": 2770,
      "uring": 2771,
      "Stre": 2772,
      "Schw": 2773,
      "younger": 2774,
      "waves": 2775,
      "änzer": 2776,
      "Boy": 2777,
      "safet": 2778,
      "jackets": 2779,
      "coming": 2780,
      "swinging": 2781,
      "prepares": 2782,
      "viele": 2783,
      "gebung": 2784,
      "folgt": 2785,
      "kicking": 2786,
      "flags": 2787,
      "conversation": 2788,
      "Indian": 2789,
      "Lebensmittel": 2790,
      "newspaper": 2791,
      "relax": 2792,
      "safety": 2793,
      "Tanz": 2794,
      "case": 2795,
      "kr": 2796,
      "min": 2797,
      "nic": 2798,
      "tu": 2799,
      "unk": 2800,
      "leuchten": 2801,
      "reden": 2802,
      "ric": 2803,
      "hold": 2804,
      "inkt": 2805,
      "farb": 2806,
      "differ": 2807,
      "blonden": 2808,
      "close": 2809,
      "itary": 2810,
      "parking": 2811,
      "Geld": 2812,
      "bunch": 2813,
      "Tennisball": 2814,
      "ziehen": 2815,
      "costumes": 2816,
      "cooter": 2817,
      "Surf": 2818,
      "Kostüm": 2819,
      "gentleman": 2820,
      "gloves": 2821,
      "spectators": 2822,
      "practicing": 2823,
      "außerhalb": 2824,
      "oriental": 2825,
      "Kn": 2826,
      "Turn": 2827,
      "Vo": 2828,
      "ace": 2829,
      "cement": 2830,
      "ians": 2831,
      "pon": 2832,
      "su": 2833,
      "scooter": 2834,
      "äl": 2835,
      "onlook": 2836,
      "sty": 2837,
      "this": 2838,
      "assi": 2839,
      "etz": 2840,
      "schwing": 2841,
      "gras": 2842,
      "there": 2843,
      "hoo": 2844,
      "untergang": 2845,
      "cleaning": 2846,
      "guckt": 2847,
      "scul": 2848,
      "Musiker": 2849,
      "Basketballspieler": 2850,
      "competition": 2851,
      "New": 2852,
      "Kostümen": 2853,
      "listening": 2854,
      "scene": 2855,
      "ladder": 2856,
      "bearded": 2857,
      "bärtiger": 2858,
      "Bowling": 2859,
      "different": 2860,
      "Po": 2861,
      "Swe": 2862,
      "dass": 2863,
      "käufer": 2864,
      "lück": 2865,
      "mütze": 2866,
      "ual": 2867,
      "iness": 2868,
      "items": 2869,
      "staring": 2870,
      "Statue": 2871,
      "blaues": 2872,
      "lange": 2873,
      "dessen": 2874,
      "Fahrzeug": 2875,
      "bikini": 2876,
      "surft": 2877,
      "produ": 2878,
      "Telefon": 2879,
      "Sonnenuntergang": 2880,
      "nah": 2881,
      "skateboarding": 2882,
      "zurück": 2883,
      "hört": 2884,
      "Snowboard": 2885,
      "Skifahrer": 2886,
      "Instrumen": 2887,
      "Plastik": 2888,
      "Cheerlea": 2889,
      "greift": 2890,
      "Brunnen": 2891,
      "Damen": 2892,
      "Hu": 2893,
      "cy": 2894,
      "sl": 2895,
      "same": 2896,
      "audien": 2897,
      "emon": 2898,
      "lawn": 2899,
      "rais": 2900,
      "upp": 2901,
      "ural": 2902,
      "ical": 2903,
      "counter": 2904,
      "desk": 2905,
      "meal": 2906,
      "füll": 2907,
      "bicycles": 2908,
      "giving": 2909,
      "liches": 2910,
      "ivid": 2911,
      "Aufschrift": 2912,
      "öffnet": 2913,
      "gelbem": 2914,
      "drinks": 2915,
      "Schüler": 2916,
      "balloon": 2917,
      "hilft": 2918,
      "fotografiert": 2919,
      "köpf": 2920,
      "empty": 2921,
      "Kleidern": 2922,
      "various": 2923,
      "iformen": 2924,
      "Kapu": 2925,
      "beugt": 2926,
      "audience": 2927,
      "Clo": 2928,
      "Klassen": 2929,
      "able": 2930,
      "hei": 2931,
      "if": 2932,
      "mem": 2933,
      "wander": 2934,
      "aub": 2935,
      "stän": 2936,
      "issen": 2937,
      "ator": 2938,
      "rop": 2939,
      "rodeo": 2940,
      "among": 2941,
      "Stro": 2942,
      "Schie": 2943,
      "liert": 2944,
      "beiden": 2945,
      "endet": 2946,
      "ausrüstung": 2947,
      "gelbe": 2948,
      "ctive": 2949,
      "froamerikan": 2950,
      "Arme": 2951,
      "pflaster": 2952,
      "ktion": 2953,
      "besch": 2954,
      "klettern": 2955,
      "Hüten": 2956,
      "Someone": 2957,
      "Tour": 2958,
      "männliche": 2959,
      "Polizist": 2960,
      "leaps": 2961,
      "städtischen": 2962,
      "Vogel": 2963,
      "onlookers": 2964,
      "Bre": 2965,
      "Bes": 2966,
      "Kletter": 2967,
      "Maschine": 2968,
      "Pass": 2969,
      "cat": 2970,
      "cra": 2971,
      "cting": 2972,
      "card": 2973,
      "mall": 2974,
      "mauer": 2975,
      "unbefest": 2976,
      "gets": 2977,
      "schreibt": 2978,
      "laden": 2979,
      "uppen": 2980,
      "apan": 2981,
      "Leiter": 2982,
      "artist": 2983,
      "Sechs": 2984,
      "lights": 2985,
      "cord": 2986,
      "gathering": 2987,
      "bowl": 2988,
      "block": 2989,
      "sliding": 2990,
      "silver": 2991,
      "überquert": 2992,
      "schlagen": 2993,
      "pointing": 2994,
      "schönen": 2995,
      "Polizisten": 2996,
      "bird": 2997,
      "Haare": 2998,
      "platform": 2999,
      "screen": 3000,
      "vegetables": 3001,
      "gebäude": 3002,
      "skleidung": 3003,
      "Bul": 3004,
      "Dre": 3005,
      "Lap": 3006,
      "Rand": 3007,
      "cers": 3008,
      "cts": 3009,
      "fei": 3010,
      "fig": 3011,
      "ging": 3012,
      "que": 3013,
      "sof": 3014,
      "thaar": 3015,
      "sports": 3016,
      "oper": 3017,
      "hed": 3018,
      "individ": 3019,
      "ssel": 3020,
      "streets": 3021,
      "dio": 3022,
      "facing": 3023,
      "abge": 3024,
      "obser": 3025,
      "ünger": 3026,
      "plane": 3027,
      "versammeln": 3028,
      "kay": 3029,
      "surfboard": 3030,
      "photograp": 3031,
      "nacktem": 3032,
      "chasing": 3033,
      "Kampfsport": 3034,
      "Bei": 3035,
      "Six": 3036,
      "Tank": 3037,
      "cir": 3038,
      "gie": 3039,
      "mä": 3040,
      "uz": 3041,
      "xoph": 3042,
      "tow": 3043,
      "bli": 3044,
      "blasen": 3045,
      "before": 3046,
      "neck": 3047,
      "stret": 3048,
      "keit": 3049,
      "clown": 3050,
      "stern": 3051,
      "eps": 3052,
      "helmets": 3053,
      "surfing": 3054,
      "competing": 3055,
      "Weiß": 3056,
      "wedding": 3057,
      "speaking": 3058,
      "happy": 3059,
      "gestreiftem": 3060,
      "Sweatshirt": 3061,
      "Kids": 3062,
      "Leine": 3063,
      "Mil": 3064,
      "Rot": 3065,
      "Rutsche": 3066,
      "Vater": 3067,
      "bung": 3068,
      "bad": 3069,
      "ced": 3070,
      "jünger": 3071,
      "leeren": 3072,
      "rothaar": 3073,
      "tops": 3074,
      "füt": 3075,
      "business": 3076,
      "gaz": 3077,
      "cano": 3078,
      "tries": 3079,
      "asiatischen": 3080,
      "lauch": 3081,
      "beleucht": 3082,
      "Schuhen": 3083,
      "huge": 3084,
      "classroom": 3085,
      "Bikini": 3086,
      "Konzert": 3087,
      "Eimer": 3088,
      "Gol": 3089,
      "Waren": 3090,
      "York": 3091,
      "fir": 3092,
      "enden": 3093,
      "ings": 3094,
      "lesen": 3095,
      "ischt": 3096,
      "boden": 3097,
      "Schlä": 3098,
      "verw": 3099,
      "waits": 3100,
      "dreht": 3101,
      "sings": 3102,
      "farbenem": 3103,
      "ages": 3104,
      "blonder": 3105,
      "bride": 3106,
      "talk": 3107,
      "Kopfhör": 3108,
      "zeich": 3109,
      "jog": 3110,
      "Westen": 3111,
      "purse": 3112,
      "students": 3113,
      "bedeckt": 3114,
      "climbs": 3115,
      "Wohn": 3116,
      "sticks": 3117,
      "genießen": 3118,
      "iefeln": 3119,
      "traditional": 3120,
      "schwimmen": 3121,
      "Marathon": 3122,
      "Parade": 3123,
      "fighting": 3124,
      "Soldaten": 3125,
      "Korb": 3126,
      "unbefestig": 3127,
      "Aben": 3128,
      "Diese": 3129,
      "Fle": 3130,
      "Tänzer": 3131,
      "Wellen": 3132,
      "pier": 3133,
      "prü": 3134,
      "rein": 3135,
      "sal": 3136,
      "öcken": 3137,
      "unch": 3138,
      "recht": 3139,
      "eibe": 3140,
      "lam": 3141,
      "town": 3142,
      "decor": 3143,
      "bewachsen": 3144,
      "seen": 3145,
      "watte": 3146,
      "ugby": 3147,
      "hole": 3148,
      "crouch": 3149,
      "chef": 3150,
      "latt": 3151,
      "ärmel": 3152,
      "Trick": 3153,
      "Badeanzug": 3154,
      "silber": 3155,
      "gemeinsam": 3156,
      "Umgebung": 3157,
      "kissing": 3158,
      "Getränk": 3159,
      "jagt": 3160,
      "Müll": 3161,
      "violin": 3162,
      "military": 3163,
      "animal": 3164,
      "sprechen": 3165,
      "mirro": 3166,
      "Stühlen": 3167,
      "Seifen": 3168,
      "Kaf": 3169,
      "Over": 3170,
      "bau": 3171,
      "gun": 3172,
      "khaki": 3173,
      "nur": 3174,
      "nap": 3175,
      "ohne": 3176,
      "rie": 3177,
      "sucht": 3178,
      "well": 3179,
      "stroller": 3180,
      "ession": 3181,
      "wobei": 3182,
      "lack": 3183,
      "ieht": 3184,
      "ily": 3185,
      "ilder": 3186,
      "amp": 3187,
      "urf": 3188,
      "entspan": 3189,
      "län": 3190,
      "gelbes": 3191,
      "walkway": 3192,
      "skating": 3193,
      "cheer": 3194,
      "Leder": 3195,
      "gekleideten": 3196,
      "protest": 3197,
      "Mikrophon": 3198,
      "exam": 3199,
      "Motorradfahrer": 3200,
      "marathon": 3201,
      "Geländem": 3202,
      "elect": 3203,
      "litten": 3204,
      "Ende": 3205,
      "afrikan": 3206,
      "writing": 3207,
      "Hal": 3208,
      "Künstler": 3209,
      "Ohr": 3210,
      "Wass": 3211,
      "ffen": 3212,
      "iff": 3213,
      "icher": 3214,
      "maschine": 3215,
      "inmitten": 3216,
      "alk": 3217,
      "ord": 3218,
      "ete": 3219,
      "dert": 3220,
      "oline": 3221,
      "richter": 3222,
      "Stand": 3223,
      "outfits": 3224,
      "lanzen": 3225,
      "skier": 3226,
      "braunem": 3227,
      "grüne": 3228,
      "diving": 3229,
      "prof": 3230,
      "ückt": 3231,
      "grauem": 3232,
      "females": 3233,
      "sunset": 3234,
      "ustom": 3235,
      "gegenüber": 3236,
      "hängen": 3237,
      "Erwachsenen": 3238,
      "Erwachsener": 3239,
      "hüp": 3240,
      "Regenschirm": 3241,
      "riesigen": 3242,
      "starrt": 3243,
      "kneeling": 3244,
      "shoulder": 3245,
      "Schutzhelm": 3246,
      "schwingt": 3247,
      "Wassers": 3248,
      "El": 3249,
      "Hö": 3250,
      "Work": 3251,
      "cand": 3252,
      "fin": 3253,
      "jak": 3254,
      "rink": 3255,
      "tire": 3256,
      "indoor": 3257,
      "angel": 3258,
      "legen": 3259,
      "lay": 3260,
      "weibli": 3261,
      "beg": 3262,
      "rist": 3263,
      "wear": 3264,
      "umm": 3265,
      "berühr": 3266,
      "waters": 3267,
      "lät": 3268,
      "anderes": 3269,
      "waving": 3270,
      "Gegend": 3271,
      "runner": 3272,
      "Handschuhen": 3273,
      "Fahrer": 3274,
      "älteren": 3275,
      "Parkplatz": 3276,
      "Uniformen": 3277,
      "partic": 3278,
      "Sohn": 3279,
      "Kajak": 3280,
      "Instrument": 3281,
      "Werk": 3282,
      "attempting": 3283,
      "sculp": 3284,
      "mirror": 3285,
      "Lauf": 3286,
      "bst": 3287,
      "ecke": 3288,
      "five": 3289,
      "tack": 3290,
      "ätow": 3291,
      "err": 3292,
      "atur": 3293,
      "touch": 3294,
      "alls": 3295,
      "ters": 3296,
      "bew": 3297,
      "Scho": 3298,
      "Schreibt": 3299,
      "verkleidet": 3300,
      "life": 3301,
      "cele": 3302,
      "made": 3303,
      "makes": 3304,
      "Kinderwagen": 3305,
      "father": 3306,
      "clou": 3307,
      "pinkfarbenen": 3308,
      "Gebäuden": 3309,
      "Shirts": 3310,
      "Bergen": 3311,
      "Bereich": 3312,
      "Straßenrand": 3313,
      "Straßenecke": 3314,
      "signs": 3315,
      "rolling": 3316,
      "lächelnd": 3317,
      "putzt": 3318,
      "enjoy": 3319,
      "course": 3320,
      "Treppen": 3321,
      "offenen": 3322,
      "balanc": 3323,
      "blowing": 3324,
      "öpfen": 3325,
      "Skateboarder": 3326,
      "hammer": 3327,
      "Party": 3328,
      "Geländemotor": 3329,
      "Fern": 3330,
      "Kat": 3331,
      "Kir": 3332,
      "Na": 3333,
      "Sänger": 3334,
      "Wh": 3335,
      "Wasch": 3336,
      "base": 3337,
      "bald": 3338,
      "craft": 3339,
      "dru": 3340,
      "kten": 3341,
      "“.": 3342,
      "ining": 3343,
      "chain": 3344,
      "ary": 3345,
      "auch": 3346,
      "sting": 3347,
      "stwagen": 3348,
      "refle": 3349,
      "ative": 3350,
      "irgend": 3351,
      "schaf": 3352,
      "umarm": 3353,
      "seite": 3354,
      "icol": 3355,
      "advert": 3356,
      "schwarzes": 3357,
      "ellung": 3358,
      "singen": 3359,
      "overlooking": 3360,
      "says": 3361,
      "Baustelle": 3362,
      "garden": 3363,
      "kostü": 3364,
      "ugging": 3365,
      "ritzt": 3366,
      "burg": 3367,
      "gymna": 3368,
      "officer": 3369,
      "multicol": 3370,
      "bubbles": 3371,
      "electric": 3372,
      "Schoß": 3373,
      "celebr": 3374,
      "Geländemotorrad": 3375,
      "umarmt": 3376,
      "advertis": 3377,
      "BM": 3378,
      "Gei": 3379,
      "Kuchen": 3380,
      "Pause": 3381,
      "Tur": 3382,
      "Za": 3383,
      "lung": 3384,
      "not": 3385,
      "pil": 3386,
      "wrap": 3387,
      "leans": 3388,
      "leash": 3389,
      "gepflaster": 3390,
      "orn": 3391,
      "irmen": 3392,
      "allow": 3393,
      "tran": 3394,
      "hood": 3395,
      "ulpt": 3396,
      "Spring": 3397,
      "fast": 3398,
      "Jacken": 3399,
      "collar": 3400,
      "steigen": 3401,
      "setzt": 3402,
      "sled": 3403,
      "grünes": 3404,
      "orangefarbener": 3405,
      "golf": 3406,
      "balloons": 3407,
      "dunkelhäutiger": 3408,
      "fixing": 3409,
      "Krawatte": 3410,
      "Backstein": 3411,
      "grasbewachsen": 3412,
      "Clown": 3413,
      "ulptur": 3414,
      "Fü": 3415,
      "Mob": 3416,
      "Netz": 3417,
      "Tier": 3418,
      "act": 3419,
      "cas": 3420,
      "cont": 3421,
      "eben": 3422,
      "glie": 3423,
      "hall": 3424,
      "ia": 3425,
      "ker": 3426,
      "prin": 3427,
      "ritt": 3428,
      "öl": 3429,
      "ino": 3430,
      "einge": 3431,
      "augh": 3432,
      "alone": 3433,
      "gegner": 3434,
      "tool": 3435,
      "Schatten": 3436,
      "verkaufen": 3437,
      "ward": 3438,
      "warm": 3439,
      "ierte": 3440,
      "Spiegel": 3441,
      "runette": 3442,
      "schauk": 3443,
      "contain": 3444,
      "faces": 3445,
      "helping": 3446,
      "gestellt": 3447,
      "llas": 3448,
      "räder": 3449,
      "leather": 3450,
      "musicians": 3451,
      "prepare": 3452,
      "Tennisspieler": 3453,
      "brightly": 3454,
      "Gelände": 3455,
      "umbrellas": 3456,
      "foreground": 3457,
      "repariert": 3458,
      "Jugendlicher": 3459,
      "Construction": 3460,
      "plate": 3461,
      "Vordergrund": 3462,
      "Schreibtisch": 3463,
      "Blau": 3464,
      "Dra": 3465,
      "Fell": 3466,
      "Sicher": 3467,
      "Taschen": 3468,
      "daugh": 3469,
      "ganz": 3470,
      "glück": 3471,
      "ners": 3472,
      "ufer": 3473,
      "van": 3474,
      "ched": 3475,
      "leep": 3476,
      "aler": 3477,
      "esch": 3478,
      "asleep": 3479,
      "tocross": 3480,
      "lossen": 3481,
      "Schlitten": 3482,
      "strecke": 3483,
      "ffic": 3484,
      "Fels": 3485,
      "Fahrradfahrer": 3486,
      "meat": 3487,
      "gekleidetes": 3488,
      "headphones": 3489,
      "good": 3490,
      "vollen": 3491,
      "Sandalen": 3492,
      "hellhäut": 3493,
      "giant": 3494,
      "gegeneinander": 3495,
      "kurzer": 3496,
      "Schnau": 3497,
      "Schulter": 3498,
      "legs": 3499,
      "Flugzeug": 3500,
      "verschiedene": 3501,
      "Einkaufswagen": 3502,
      "füllten": 3503,
      "particip": 3504,
      "sculpture": 3505,
      "Es": 3506,
      "Im": 3507,
      "Kunden": 3508,
      "Mat": 3509,
      "Train": 3510,
      "baum": 3511,
      "custom": 3512,
      "dish": 3513,
      "eping": 3514,
      "mix": 3515,
      "prä": 3516,
      "tunnel": 3517,
      "vice": 3518,
      "video": 3519,
      "zä": 3520,
      "ants": 3521,
      "chte": 3522,
      "itten": 3523,
      "itär": 3524,
      "reiten": 3525,
      "atz": 3526,
      "deon": 3527,
      "bot": 3528,
      "uper": 3529,
      "log": 3530,
      "wears": 3531,
      "Ste": 3532,
      "grocer": 3533,
      "heav": 3534,
      "trash": 3535,
      "angezogen": 3536,
      "worfen": 3537,
      "Fahrrädern": 3538,
      "washing": 3539,
      "dsrichter": 3540,
      "anken": 3541,
      "office": 3542,
      "lett": 3543,
      "repair": 3544,
      "doorway": 3545,
      "afé": 3546,
      "prote": 3547,
      "project": 3548,
      "sandals": 3549,
      "asiatisches": 3550,
      "falling": 3551,
      "swings": 3552,
      "passing": 3553,
      "Footballspieler": 3554,
      "Koch": 3555,
      "schuh": 3556,
      "lippe": 3557,
      "drawing": 3558,
      "korb": 3559,
      "jemandem": 3560,
      "stadium": 3561,
      "Old": 3562,
      "Schläger": 3563,
      "balanciert": 3564,
      "Mobil": 3565,
      "Bein": 3566,
      "Blät": 3567,
      "Kop": 3568,
      "Tra": 3569,
      "fra": 3570,
      "ift": 3571,
      "nung": 3572,
      "ras": 3573,
      "scope": 3574,
      "tau": 3575,
      "wunder": 3576,
      "winkt": 3577,
      "cho": 3578,
      "chines": 3579,
      "string": 3580,
      "mance": 3581,
      "aufel": 3582,
      "toys": 3583,
      "raum": 3584,
      "sition": 3585,
      "rier": 3586,
      "Stiefeln": 3587,
      "Schlauch": 3588,
      "formance": 3589,
      "post": 3590,
      "Angel": 3591,
      "durchs": 3592,
      "Felsw": 3593,
      "illen": 3594,
      "held": 3595,
      "heads": 3596,
      "Büro": 3597,
      "llen": 3598,
      "stuff": 3599,
      "studio": 3600,
      "Pferden": 3601,
      "Erde": 3602,
      "schläger": 3603,
      "Verkehr": 3604,
      "musical": 3605,
      "gebiet": 3606,
      "accord": 3607,
      "Badehose": 3608,
      "küsst": 3609,
      "skiing": 3610,
      "officers": 3611,
      "Hochzeit": 3612,
      "hiking": 3613,
      "fällt": 3614,
      "schütt": 3615,
      "Akkor": 3616,
      "nahme": 3617,
      "Schiedsrichter": 3618,
      "photographer": 3619,
      "canoe": 3620,
      "multicolored": 3621,
      "Mobiltelefon": 3622,
      "accordion": 3623,
      "Base": 3624,
      "Chr": 3625,
      "Reit": 3626,
      "Sal": 3627,
      "Ta": 3628,
      "sack": 3629,
      "wich": 3630,
      "inclu": 3631,
      "anne": 3632,
      "church": 3633,
      "armen": 3634,
      "statt": 3635,
      "stellen": 3636,
      "aufger": 3637,
      "ildern": 3638,
      "bewe": 3639,
      "booth": 3640,
      "spen": 3641,
      "shallow": 3642,
      "locks": 3643,
      "sea": 3644,
      "ached": 3645,
      "bereich": 3646,
      "heben": 3647,
      "heraus": 3648,
      "ugel": 3649,
      "males": 3650,
      "mob": 3651,
      "performance": 3652,
      "reppe": 3653,
      "aded": 3654,
      "dirty": 3655,
      "hellbrauner": 3656,
      "laptop": 3657,
      "orangefarbenem": 3658,
      "picking": 3659,
      "teenage": 3660,
      "throws": 3661,
      "reaching": 3662,
      "barefoot": 3663,
      "Halsband": 3664,
      "Surfbrett": 3665,
      "Kapuzen": 3666,
      "Klassenzimmer": 3667,
      "Golf": 3668,
      "profession": 3669,
      "Felswand": 3670,
      "Akkordeon": 3671,
      "Fall": 3672,
      "Ke": 3673,
      "Sä": 3674,
      "Teil": 3675,
      "US": 3676,
      "Zimmer": 3677,
      "ddle": 3678,
      "ee": 3679,
      "iste": 3680,
      "ju": 3681,
      "kw": 3682,
      "kat": 3683,
      "lü": 3684,
      "nf": 3685,
      "port": 3686,
      "sä": 3687,
      "wär": 3688,
      "ckten": 3689,
      "aske": 3690,
      "aufge": 3691,
      "lab": 3692,
      "laund": 3693,
      "ama": 3694,
      "ign": 3695,
      "traffic": 3696,
      "most": 3697,
      "davor": 3698,
      "clean": 3699,
      "halle": 3700,
      "Skater": 3701,
      "Oberteilen": 3702,
      "wegs": 3703,
      "fünf": 3704,
      "zeigen": 3705,
      "lächelnde": 3706,
      "straw": 3707,
      "anzügen": 3708,
      "kann": 3709,
      "belebte": 3710,
      "below": 3711,
      "Loch": 3712,
      "Kanu": 3713,
      "äume": 3714,
      "digging": 3715,
      "Chinese": 3716,
      "schmutz": 3717,
      "unbefestigten": 3718,
      "Fleisch": 3719,
      "Höhe": 3720,
      "BMX": 3721,
      "Sicherhe": 3722,
      "daughter": 3723,
      "Christ": 3724,
      "Al": 3725,
      "Ban": 3726,
      "Bru": 3727,
      "Ele": 3728,
      "Hot": 3729,
      "Japan": 3730,
      "Pick": 3731,
      "aß": 3732,
      "brunnen": 3733,
      "fuß": 3734,
      "gan": 3735,
      "hugging": 3736,
      "jugg": 3737,
      "seines": 3738,
      "tor": 3739,
      "zaun": 3740,
      "ähn": 3741,
      "erwachsen": 3742,
      "einz": 3743,
      "auss": 3744,
      "ones": 3745,
      "atop": 3746,
      "ature": 3747,
      "etten": 3748,
      "irn": 3749,
      "ils": 3750,
      "blä": 3751,
      "spot": 3752,
      "upside": 3753,
      "lock": 3754,
      "ricket": 3755,
      "balls": 3756,
      "teach": 3757,
      "redet": 3758,
      "ugs": 3759,
      "hoop": 3760,
      "fert": 3761,
      "feren": 3762,
      "keiten": 3763,
      "ruh": 3764,
      "fahrzeug": 3765,
      "guard": 3766,
      "dancers": 3767,
      "Innen": 3768,
      "steigt": 3769,
      "Fußballspiel": 3770,
      "Pferde": 3771,
      "gives": 3772,
      "microscope": 3773,
      "passes": 3774,
      "Lastwagen": 3775,
      "even": 3776,
      "catching": 3777,
      "catches": 3778,
      "Schuhe": 3779,
      "Mountain": 3780,
      "club": 3781,
      "direction": 3782,
      "Kreis": 3783,
      "relaxing": 3784,
      "leuchtend": 3785,
      "suspen": 3786,
      "Laptop": 3787,
      "Seifenblasen": 3788,
      "weibliche": 3789,
      "schaften": 3790,
      "aussieht": 3791,
      "Ecke": 3792,
      "Gu": 3793,
      "Kur": 3794,
      "Nach": 3795,
      "Tischen": 3796,
      "brunette": 3797,
      "cial": 3798,
      "dach": 3799,
      "fan": 3800,
      "fing": 3801,
      "fil": 3802,
      "figh": 3803,
      "flies": 3804,
      "hur": 3805,
      "ipe": 3806,
      "ife": 3807,
      "kre": 3808,
      "ou": 3809,
      "sern": 3810,
      "uals": 3811,
      "zz": 3812,
      "öh": 3813,
      "unks": 3814,
      "stunt": 3815,
      "rec": 3816,
      "gepark": 3817,
      "schild": 3818,
      "offer": 3819,
      "deep": 3820,
      "bly": 3821,
      "bekleidet": 3822,
      "spor": 3823,
      "weste": 3824,
      "seum": 3825,
      "Schaufen": 3826,
      "Schlange": 3827,
      "iern": 3828,
      "holt": 3829,
      "ists": 3830,
      "frisch": 3831,
      "Spaß": 3832,
      "paved": 3833,
      "füllt": 3834,
      "resting": 3835,
      "sweeping": 3836,
      "nav": 3837,
      "sleeps": 3838,
      "cafe": 3839,
      "shows": 3840,
      "follow": 3841,
      "Pflanzen": 3842,
      "lines": 3843,
      "gleitet": 3844,
      "küssen": 3845,
      "golden": 3846,
      "verschiedenen": 3847,
      "leaping": 3848,
      "Dog": 3849,
      "bemalt": 3850,
      "Kranken": 3851,
      "Kaffee": 3852,
      "kostüm": 3853,
      "Schnauze": 3854,
      "Christmas": 3855,
      "Black": 3856,
      "Bäume": 3857,
      "Lab": 3858,
      "Ra": 3859,
      "Rück": 3860,
      "Teich": 3861,
      "Tramp": 3862,
      "Wü": 3863,
      "Wind": 3864,
      "Zei": 3865,
      "aks": 3866,
      "belt": 3867,
      "cus": 3868,
      "eat": 3869,
      "hes": 3870,
      "pun": 3871,
      "pond": 3872,
      "xi": 3873,
      "itz": 3874,
      "stor": 3875,
      "lege": 3876,
      "anda": 3877,
      "oren": 3878,
      "ird": 3879,
      "tour": 3880,
      "illt": 3881,
      "destri": 3882,
      "tert": 3883,
      "rick": 3884,
      "Stirn": 3885,
      "step": 3886,
      "teles": 3887,
      "teeth": 3888,
      "wards": 3889,
      "ited": 3890,
      "tron": 3891,
      "trunks": 3892,
      "appro": 3893,
      "ister": 3894,
      "skin": 3895,
      "tracks": 3896,
      "tramp": 3897,
      "indernis": 3898,
      "formal": 3899,
      "formation": 3900,
      "singer": 3901,
      "stehende": 3902,
      "desert": 3903,
      "eilen": 3904,
      "move": 3905,
      "fahrt": 3906,
      "dient": 3907,
      "Spielfeld": 3908,
      "Luftball": 3909,
      "shoe": 3910,
      "fully": 3911,
      "Tepp": 3912,
      "Stadion": 3913,
      "geschm": 3914,
      "geschlossen": 3915,
      "coats": 3916,
      "Mikroskop": 3917,
      "athlet": 3918,
      "komp": 3919,
      "marsch": 3920,
      "present": 3921,
      "Objekt": 3922,
      "Tochter": 3923,
      "schlafen": 3924,
      "lilafarbenen": 3925,
      "Schultern": 3926,
      "Rennstrecke": 3927,
      "Gerüst": 3928,
      "conversing": 3929,
      "Schlamm": 3930,
      "scaff": 3931,
      "Tromm": 3932,
      "farbenfrohen": 3933,
      "hoodie": 3934,
      "köpfiger": 3935,
      "Tanktop": 3936,
      "circle": 3937,
      "salon": 3938,
      "gepflasterten": 3939,
      "grasbewachsenen": 3940,
      "Kopft": 3941,
      "Café": 3942,
      "Flasche": 3943,
      "Haufen": 3944,
      "Kappe": 3945,
      "Mö": 3946,
      "Oly": 3947,
      "Ring": 3948,
      "Tasse": 3949,
      "cyclist": 3950,
      "fair": 3951,
      "fliegen": 3952,
      "gate": 3953,
      "jong": 3954,
      "nick": 3955,
      "slo": 3956,
      "uh": 3957,
      "wen": 3958,
      "wind": 3959,
      "entr": 3960,
      "ital": 3961,
      "stack": 3962,
      "stellung": 3963,
      "leucht": 3964,
      "elf": 3965,
      "ged": 3966,
      "gezogen": 3967,
      "eter": 3968,
      "racket": 3969,
      "blü": 3970,
      "bec": 3971,
      "bewer": 3972,
      "bogen": 3973,
      "neath": 3974,
      "wea": 3975,
      "Schaufel": 3976,
      "Hunden": 3977,
      "stream": 3978,
      "hou": 3979,
      "Anz": 3980,
      "gerät": 3981,
      "check": 3982,
      "zene": 3983,
      "closed": 3984,
      "must": 3985,
      "cold": 3986,
      "gucken": 3987,
      "comple": 3988,
      "jogging": 3989,
      "underneath": 3990,
      "tricks": 3991,
      "Verkauf": 3992,
      "eye": 3993,
      "balcon": 3994,
      "karate": 3995,
      "plants": 3996,
      "hügel": 3997,
      "sleeve": 3998,
      "kocht": 3999,
      "Karate": 4000,
      "Kai": 4001,
      "points": 4002,
      "männlicher": 4003,
      "hören": 4004,
      "wrestling": 4005,
      "violetten": 4006,
      "splashing": 4007,
      "Cheerleader": 4008,
      "Hula": 4009,
      "Overall": 4010,
      "Kirche": 4011,
      "Geige": 4012,
      "telescope": 4013,
      "\".": 4014,
      "AT": 4015,
      "Ex": 4016,
      "Hindernis": 4017,
      "Jahr": 4018,
      "Lie": 4019,
      "Qu": 4020,
      "San": 4021,
      "Small": 4022,
      "Video": 4023,
      "Wel": 4024,
      "Zä": 4025,
      "afe": 4026,
      "afroamerikan": 4027,
      "bü": 4028,
      "kappe": 4029,
      "künstler": 4030,
      "pin": 4031,
      "wur": 4032,
      "äck": 4033,
      "inn": 4034,
      "robe": 4035,
      "gesp": 4036,
      "siz": 4037,
      "without": 4038,
      "beam": 4039,
      "sprin": 4040,
      "neon": 4041,
      "umarmen": 4042,
      "ides": 4043,
      "tren": 4044,
      "position": 4045,
      "bush": 4046,
      "unterwegs": 4047,
      "ittel": 4048,
      "magaz": 4049,
      "moving": 4050,
      "bath": 4051,
      "halt": 4052,
      "shoo": 4053,
      "dances": 4054,
      "samm": 4055,
      "Parkbank": 4056,
      "grauer": 4057,
      "themsel": 4058,
      "cane": 4059,
      "asiatisch": 4060,
      "hellen": 4061,
      "schnell": 4062,
      "festival": 4063,
      "Baumst": 4064,
      "Helmen": 4065,
      "Küste": 4066,
      "Meeres": 4067,
      "felsi": 4068,
      "linie": 4069,
      "self": 4070,
      "Schuh": 4071,
      "kahl": 4072,
      "Freunden": 4073,
      "curly": 4074,
      "hula": 4075,
      "schöne": 4076,
      "Landschaft": 4077,
      "gesäum": 4078,
      "Flaggen": 4079,
      "aussehende": 4080,
      "shoulders": 4081,
      "Freunde": 4082,
      "Farben": 4083,
      "books": 4084,
      "fresh": 4085,
      "spray": 4086,
      "Strecke": 4087,
      "länd": 4088,
      "gegnerischen": 4089,
      "schaukelt": 4090,
      "including": 4091,
      "themselves": 4092,
      "Am": 4093,
      "Blatt": 4094,
      "Col": 4095,
      "Da": 4096,
      "Eing": 4097,
      "Gasse": 4098,
      "Hang": 4099,
      "Lkw": 4100,
      "Maske": 4101,
      "Wä": 4102,
      "Ziel": 4103,
      "cau": 4104,
      "cul": 4105,
      "crying": 4106,
      "cted": 4107,
      "dust": 4108,
      "gon": 4109,
      "kla": 4110,
      "lone": 4111,
      "mural": 4112,
      "nival": 4113,
      "oten": 4114,
      "ran": 4115,
      "tong": 4116,
      "tub": 4117,
      "wine": 4118,
      "wire": 4119,
      "inten": 4120,
      "itor": 4121,
      "lete": 4122,
      "tom": 4123,
      "oll": 4124,
      "bedient": 4125,
      "sprung": 4126,
      "opposing": 4127,
      "losen": 4128,
      "Steine": 4129,
      "Schne": 4130,
      "ads": 4131,
      "grillt": 4132,
      "reiben": 4133,
      "ssing": 4134,
      "tage": 4135,
      "taken": 4136,
      "hälter": 4137,
      "carnival": 4138,
      "schaukel": 4139,
      "stehenden": 4140,
      "langem": 4141,
      "damit": 4142,
      "Außen": 4143,
      "brün": 4144,
      "crosswalk": 4145,
      "bicyclist": 4146,
      "richtet": 4147,
      "ized": 4148,
      "Schwimmbrille": 4149,
      "wooded": 4150,
      "pulled": 4151,
      "sheet": 4152,
      "Geschäfts": 4153,
      "Flü": 4154,
      "Schnur": 4155,
      "Gegenstän": 4156,
      "Sachen": 4157,
      "makeup": 4158,
      "matching": 4159,
      "Mahl": 4160,
      "Schutzhelmen": 4161,
      "dinner": 4162,
      "Schlaf": 4163,
      "hiker": 4164,
      "Balkon": 4165,
      "Dieser": 4166,
      "bringt": 4167,
      "Sitzen": 4168,
      "farbigen": 4169,
      "produce": 4170,
      "Stroh": 4171,
      "Touristen": 4172,
      "Bullen": 4173,
      "individuals": 4174,
      "kayak": 4175,
      "beleuchteten": 4176,
      "entspannt": 4177,
      "Workers": 4178,
      "Katze": 4179,
      "heavy": 4180,
      "Kapuzenpul": 4181,
      "Trampolin": 4182,
      "trampoline": 4183,
      "Bad": 4184,
      "Licht": 4185,
      "Per": 4186,
      "Tunnel": 4187,
      "center": 4188,
      "fly": 4189,
      "för": 4190,
      "hlt": 4191,
      "kinder": 4192,
      "knee": 4193,
      "lauf": 4194,
      "mö": 4195,
      "mess": 4196,
      "ober": 4197,
      "ried": 4198,
      "sn": 4199,
      "sem": 4200,
      "tes": 4201,
      "tisch": 4202,
      "yl": 4203,
      "üben": 4204,
      "inspe": 4205,
      "eins": 4206,
      "chern": 4207,
      "stroll": 4208,
      "eig": 4209,
      "seat": 4210,
      "sewing": 4211,
      "Schä": 4212,
      "veranstaltung": 4213,
      "igkeiten": 4214,
      "entfer": 4215,
      "hosen": 4216,
      "ändern": 4217,
      "ameras": 4218,
      "Seiten": 4219,
      "Hoop": 4220,
      "hinab": 4221,
      "Skiern": 4222,
      "muck": 4223,
      "agers": 4224,
      "help": 4225,
      "picnic": 4226,
      "surface": 4227,
      "performer": 4228,
      "Berge": 4229,
      "Feldweg": 4230,
      "exc": 4231,
      "Fest": 4232,
      "covering": 4233,
      "Gesichts": 4234,
      "flug": 4235,
      "nose": 4236,
      "schneiden": 4237,
      "ondon": 4238,
      "Schüssel": 4239,
      "attempts": 4240,
      "Kreuz": 4241,
      "Wettkampf": 4242,
      "infant": 4243,
      "inflat": 4244,
      "Fahnen": 4245,
      "zeugen": 4246,
      "members": 4247,
      "verwendet": 4248,
      "Kopfhörer": 4249,
      "hüpft": 4250,
      "Turner": 4251,
      "Springbrunnen": 4252,
      "stuffed": 4253,
      "Zeichen": 4254,
      "jongliert": 4255,
      "houette": 4256,
      "12": 4257,
      "Bilder": 4258,
      "Gle": 4259,
      "Klippe": 4260,
      "Laub": 4261,
      "Rett": 4262,
      "fur": 4263,
      "jub": 4264,
      "nie": 4265,
      "own": 4266,
      "pipe": 4267,
      "sse": 4268,
      "sold": 4269,
      "zten": 4270,
      "äten": 4271,
      "inen": 4272,
      "stö": 4273,
      "leicht": 4274,
      "third": 4275,
      "alm": 4276,
      "lays": 4277,
      "bever": 4278,
      "sted": 4279,
      "steckt": 4280,
      "tele": 4281,
      "licht": 4282,
      "ierter": 4283,
      "blades": 4284,
      "oney": 4285,
      "igem": 4286,
      "skis": 4287,
      "ruht": 4288,
      "farm": 4289,
      "These": 4290,
      "dium": 4291,
      "saxoph": 4292,
      "goes": 4293,
      "dancer": 4294,
      "afel": 4295,
      "ips": 4296,
      "himself": 4297,
      "schießt": 4298,
      "geschn": 4299,
      "corn": 4300,
      "lächelnder": 4301,
      "cast": 4302,
      "driver": 4303,
      "Eishockey": 4304,
      "Poli": 4305,
      "opening": 4306,
      "blouse": 4307,
      "pushes": 4308,
      "Umzug": 4309,
      "dunkler": 4310,
      "Couch": 4311,
      "Softball": 4312,
      "chases": 4313,
      "Teams": 4314,
      "links": 4315,
      "square": 4316,
      "stadt": 4317,
      "button": 4318,
      "style": 4319,
      "Brett": 4320,
      "softball": 4321,
      "Militär": 4322,
      "zeichnet": 4323,
      "Abend": 4324,
      "rechts": 4325,
      "bauen": 4326,
      "druck": 4327,
      "bottom": 4328,
      "Sicherheits": 4329,
      "Picknick": 4330,
      "bläst": 4331,
      "Schaufenster": 4332,
      "destrians": 4333,
      "slope": 4334,
      "Anzügen": 4335,
      "balcony": 4336,
      "förm": 4337,
      "20": 4338,
      "At": 4339,
      "Bro": 4340,
      "Don": 4341,
      "For": 4342,
      "London": 4343,
      "Red": 4344,
      "Tü": 4345,
      "Teller": 4346,
      "Wander": 4347,
      "gri": 4348,
      "gitar": 4349,
      "kopf": 4350,
      "lunch": 4351,
      "tile": 4352,
      "will": 4353,
      "“-": 4354,
      "ents": 4355,
      "ane": 4356,
      "unic": 4357,
      "arena": 4358,
      "geöffnet": 4359,
      "schirmen": 4360,
      "allen": 4361,
      "device": 4362,
      "blas": 4363,
      "bekommt": 4364,
      "ersk": 4365,
      "weiter": 4366,
      "section": 4367,
      "bent": 4368,
      "verfolgt": 4369,
      "reifen": 4370,
      "sses": 4371,
      "cook": 4372,
      "trum": 4373,
      "Grim": 4374,
      "endes": 4375,
      "podium": 4376,
      "apel": 4377,
      "ringen": 4378,
      "waterfall": 4379,
      "icker": 4380,
      "ürde": 4381,
      "Box": 4382,
      "dry": 4383,
      "Geschen": 4384,
      "Asiate": 4385,
      "baren": 4386,
      "barfuß": 4387,
      "Bücher": 4388,
      "sandy": 4389,
      "richtung": 4390,
      "hellblauen": 4391,
      "stücke": 4392,
      "Veranda": 4393,
      "athlete": 4394,
      "puts": 4395,
      "pulls": 4396,
      "plant": 4397,
      "boxes": 4398,
      "staircase": 4399,
      "Sportler": 4400,
      "iano": 4401,
      "Groß": 4402,
      "Ausrüstung": 4403,
      "Blue": 4404,
      "aussehender": 4405,
      "fotografieren": 4406,
      "näher": 4407,
      "Cowboyhut": 4408,
      "speaks": 4409,
      "dunkelhäutige": 4410,
      "reparieren": 4411,
      "type": 4412,
      "Instrumenten": 4413,
      "wandert": 4414,
      "berührt": 4415,
      "gymnast": 4416,
      "schüttelt": 4417,
      "Wüste": 4418,
      "Teppich": 4419,
      "geschlossenen": 4420,
      "Kopftuch": 4421,
      "bewerb": 4422,
      "shooting": 4423,
      "Polizei": 4424,
      "Beinen": 4425,
      "Eu": 4426,
      "Hei": 4427,
      "Ham": 4428,
      "Kä": 4429,
      "Kart": 4430,
      "Nase": 4431,
      "Pod": 4432,
      "Som": 4433,
      "Trä": 4434,
      "Wurf": 4435,
      "aco": 4436,
      "har": 4437,
      "lers": 4438,
      "nei": 4439,
      "nice": 4440,
      "pupp": 4441,
      "sy": 4442,
      "sei": 4443,
      "sco": 4444,
      "suchen": 4445,
      "tight": 4446,
      "vement": 4447,
      "wasser": 4448,
      "une": 4449,
      "arrow": 4450,
      "start": 4451,
      "atting": 4452,
      "gelegt": 4453,
      "geworfen": 4454,
      "aufnahme": 4455,
      "schauf": 4456,
      "ram": 4457,
      "rack": 4458,
      "towel": 4459,
      "ship": 4460,
      "opp": 4461,
      "Steinen": 4462,
      "see": 4463,
      "verkäufer": 4464,
      "vorüber": 4465,
      "cool": 4466,
      "hoben": 4467,
      "hockt": 4468,
      "fris": 4469,
      "überfüllten": 4470,
      "fosten": 4471,
      "Personengruppe": 4472,
      "travel": 4473,
      "umpf": 4474,
      "braunhaarige": 4475,
      "boards": 4476,
      "overalls": 4477,
      "ures": 4478,
      "iertem": 4479,
      "Tele": 4480,
      "horn": 4481,
      "stool": 4482,
      "boats": 4483,
      "Essens": 4484,
      "enjoys": 4485,
      "drives": 4486,
      "blocks": 4487,
      "shaking": 4488,
      "ashion": 4489,
      "garb": 4490,
      "Projekt": 4491,
      "amerikanische": 4492,
      "swims": 4493,
      "wetsuit": 4494,
      "kehrt": 4495,
      "scape": 4496,
      "bringen": 4497,
      "Handtasche": 4498,
      "Instrumente": 4499,
      "reinigt": 4500,
      "finish": 4501,
      "grocery": 4502,
      "Reiter": 4503,
      "Guy": 4504,
      "approach": 4505,
      "Mahlzeit": 4506,
      "Bach": 4507,
      "Fischer": 4508,
      "Finger": 4509,
      "Here": 4510,
      "Rugby": 4511,
      "don": 4512,
      "gy": 4513,
      "hau": 4514,
      "hle": 4515,
      "ident": 4516,
      "mei": 4517,
      "pes": 4518,
      "sau": 4519,
      "vil": 4520,
      "zent": 4521,
      "üsi": 4522,
      "chalk": 4523,
      "stark": 4524,
      "ledge": 4525,
      "tho": 4526,
      "reit": 4527,
      "attra": 4528,
      "robes": 4529,
      "irr": 4530,
      "amüsi": 4531,
      "riert": 4532,
      "Stoff": 4533,
      "umn": 4534,
      "umher": 4535,
      "steep": 4536,
      "Schm": 4537,
      "headed": 4538,
      "grin": 4539,
      "reign": 4540,
      "läufer": 4541,
      "poster": 4542,
      "pouring": 4543,
      "apers": 4544,
      "Gep": 4545,
      "Gebiet": 4546,
      "mound": 4547,
      "Wasserfall": 4548,
      "farbene": 4549,
      "clear": 4550,
      "zentrum": 4551,
      "jean": 4552,
      "fabri": 4553,
      "pinkfarbenem": 4554,
      "muster": 4555,
      "helm": 4556,
      "puddle": 4557,
      "Asiaten": 4558,
      "compan": 4559,
      "vorbeigehen": 4560,
      "bicyclists": 4561,
      "ktor": 4562,
      "deckt": 4563,
      "ützen": 4564,
      "akes": 4565,
      "führung": 4566,
      "spee": 4567,
      "Erd": 4568,
      "marching": 4569,
      "hangs": 4570,
      "schuhe": 4571,
      "diesem": 4572,
      "kicks": 4573,
      "hüb": 4574,
      "shaving": 4575,
      "Hauses": 4576,
      "curb": 4577,
      "birds": 4578,
      "traditioneller": 4579,
      "Getränke": 4580,
      "pitcher": 4581,
      "teenagers": 4582,
      "gentlemen": 4583,
      "linken": 4584,
      "hikers": 4585,
      "Older": 4586,
      "Asiatin": 4587,
      "zeuge": 4588,
      "porch": 4589,
      "gießt": 4590,
      "Lederjacke": 4591,
      "cloudy": 4592,
      "wrapped": 4593,
      "customers": 4594,
      "Salto": 4595,
      "Fallschirm": 4596,
      "laundry": 4597,
      "einzel": 4598,
      "fingers": 4599,
      "Zähne": 4600,
      "felsigen": 4601,
      "Bä": 4602,
      "Tuch": 4603,
      "Wet": 4604,
      "bit": 4605,
      "bart": 4606,
      "drop": 4607,
      "flasche": 4608,
      "fashion": 4609,
      "nassen": 4610,
      "pair": 4611,
      "palm": 4612,
      "piano": 4613,
      "tief": 4614,
      "uert": 4615,
      "wein": 4616,
      "wett": 4617,
      "zern": 4618,
      "anger": 4619,
      "chase": 4620,
      "arch": 4621,
      "stür": 4622,
      "gef": 4623,
      "eier": 4624,
      "aufblas": 4625,
      "schlag": 4626,
      "deren": 4627,
      "opren": 4628,
      "oppo": 4629,
      "lots": 4630,
      "local": 4631,
      "weise": 4632,
      "denten": 4633,
      "groom": 4634,
      "teenager": 4635,
      "lips": 4636,
      "Gruppen": 4637,
      "airplane": 4638,
      "poles": 4639,
      "apart": 4640,
      "fröh": 4641,
      "lane": 4642,
      "untersucht": 4643,
      "foreign": 4644,
      "checking": 4645,
      "icken": 4646,
      "backyard": 4647,
      "mod": 4648,
      "Fahrräder": 4649,
      "diers": 4650,
      "Spielen": 4651,
      "saw": 4652,
      "sale": 4653,
      "struktion": 4654,
      "füß": 4655,
      "bran": 4656,
      "brillen": 4657,
      "quar": 4658,
      "stock": 4659,
      "attached": 4660,
      "Straßenkünstler": 4661,
      "hellbraunen": 4662,
      "colors": 4663,
      "Küchen": 4664,
      "sheep": 4665,
      "wäscht": 4666,
      "Lager": 4667,
      "Neopren": 4668,
      "uggage": 4669,
      "Orange": 4670,
      "reaches": 4671,
      "shoveling": 4672,
      "paddling": 4673,
      "Winterkleidung": 4674,
      "Kerl": 4675,
      "fütze": 4676,
      "prüft": 4677,
      "transport": 4678,
      "protective": 4679,
      "Blätter": 4680,
      "taucht": 4681,
      "wärts": 4682,
      "evening": 4683,
      "Eingang": 4684,
      "opposite": 4685,
      "Kissen": 4686,
      "Kuh": 4687,
      "Mc": 4688,
      "Not": 4689,
      "Pit": 4690,
      "Tarn": 4691,
      "Terr": 4692,
      "Wal": 4693,
      "Zunge": 4694,
      "eys": 4695,
      "flu": 4696,
      "flage": 4697,
      "glas": 4698,
      "jam": 4699,
      "luggage": 4700,
      "nnen": 4701,
      "swor": 4702,
      "viert": 4703,
      "vac": 4704,
      "übt": 4705,
      "anna": 4706,
      "itze": 4707,
      "eme": 4708,
      "stet": 4709,
      "stag": 4710,
      "leading": 4711,
      "mantel": 4712,
      "schwe": 4713,
      "peace": 4714,
      "allein": 4715,
      "spar": 4716,
      "oppon": 4717,
      "westen": 4718,
      "Station": 4719,
      "denim": 4720,
      "ume": 4721,
      "ica": 4722,
      "grä": 4723,
      "beieinander": 4724,
      "änden": 4725,
      "fenced": 4726,
      "ickelt": 4727,
      "desc": 4728,
      "haw": 4729,
      "sitzende": 4730,
      "pavement": 4731,
      "bathro": 4732,
      "braunes": 4733,
      "fahrern": 4734,
      "teilen": 4735,
      "cones": 4736,
      "nachdem": 4737,
      "bread": 4738,
      "pfel": 4739,
      "Fotogra": 4740,
      "Skateboardfahrer": 4741,
      "darunter": 4742,
      "Kleine": 4743,
      "polo": 4744,
      "polic": 4745,
      "windows": 4746,
      "flor": 4747,
      "dunkelhaarige": 4748,
      "kickt": 4749,
      "wheelchair": 4750,
      "skirts": 4751,
      "Werbung": 4752,
      "camou": 4753,
      "höl": 4754,
      "balancing": 4755,
      "Sieben": 4756,
      "paddelt": 4757,
      "streich": 4758,
      "erina": 4759,
      "Fußgängerüber": 4760,
      "Rollstuhl": 4761,
      "keyboard": 4762,
      "Taucher": 4763,
      "weitere": 4764,
      "Passanten": 4765,
      "begin": 4766,
      "pillow": 4767,
      "container": 4768,
      "Kurve": 4769,
      "scaffol": 4770,
      "wurde": 4771,
      "Baumstamm": 4772,
      "Wäsche": 4773,
      "tongue": 4774,
      "inflatable": 4775,
      "saxophone": 4776,
      "fabric": 4777,
      "Terrasse": 4778,
      "camouflage": 4779,
      "Bord": 4780,
      "City": 4781,
      "Du": 4782,
      "Fil": 4783,
      "Kö": 4784,
      "Kam": 4785,
      "Kab": 4786,
      "Key": 4787,
      "Mod": 4788,
      "Pat": 4789,
      "Wein": 4790,
      "action": 4791,
      "baut": 4792,
      "care": 4793,
      "dü": 4794,
      "eats": 4795,
      "free": 4796,
      "fans": 4797,
      "fill": 4798,
      "flight": 4799,
      "lle": 4800,
      "lim": 4801,
      "rem": 4802,
      "uss": 4803,
      "vent": 4804,
      "äut": 4805,
      "üte": 4806,
      "chn": 4807,
      "char": 4808,
      "legest": 4809,
      "refer": 4810,
      "ello": 4811,
      "iss": 4812,
      "atet": 4813,
      "aters": 4814,
      "escal": 4815,
      "scheinen": 4816,
      "ilden": 4817,
      "bling": 4818,
      "image": 4819,
      "spin": 4820,
      "ames": 4821,
      "shade": 4822,
      "riage": 4823,
      "richten": 4824,
      "bern": 4825,
      "ligen": 4826,
      "vorn": 4827,
      "igam": 4828,
      "buying": 4829,
      "Gew": 4830,
      "unterschie": 4831,
      "tractor": 4832,
      "chest": 4833,
      "Lehr": 4834,
      "hafen": 4835,
      "model": 4836,
      "perim": 4837,
      "Sees": 4838,
      "hinaus": 4839,
      "helfen": 4840,
      "meet": 4841,
      "hinterher": 4842,
      "Bräut": 4843,
      "walls": 4844,
      "affe": 4845,
      "barfüß": 4846,
      "ütte": 4847,
      "attle": 4848,
      "stufen": 4849,
      "izza": 4850,
      "ammlung": 4851,
      "floating": 4852,
      "Schwimmer": 4853,
      "Becher": 4854,
      "married": 4855,
      "discu": 4856,
      "Mitglie": 4857,
      "motorcycles": 4858,
      "laughs": 4859,
      "kiss": 4860,
      "testelle": 4861,
      "swimsuit": 4862,
      "schwen": 4863,
      "courtyard": 4864,
      "railroad": 4865,
      "konzent": 4866,
      "vollführt": 4867,
      "Hockeyspieler": 4868,
      "goalie": 4869,
      "raised": 4870,
      "rothaarige": 4871,
      "angelt": 4872,
      "Nah": 4873,
      "frame": 4874,
      "rasiert": 4875,
      "bewegt": 4876,
      "mobile": 4877,
      "professional": 4878,
      "Brust": 4879,
      "juggling": 4880,
      "recei": 4881,
      "skinned": 4882,
      "becue": 4883,
      "Santa": 4884,
      "Rettung": 4885,
      "geschnitten": 4886,
      "Teleskop": 4887,
      "Gepäck": 4888,
      "jamas": 4889,
      "gräbt": 4890,
      "floral": 4891,
      "unterschied": 4892,
      "Bräutigam": 4893,
      "Auft": 4894,
      "Lad": 4895,
      "Mon": 4896,
      "Namen": 4897,
      "Pal": 4898,
      "Tätow": 4899,
      "aden": 4900,
      "bi": 4901,
      "eu": 4902,
      "eith": 4903,
      "egg": 4904,
      "gas": 4905,
      "hre": 4906,
      "hner": 4907,
      "kunst": 4908,
      "map": 4909,
      "nch": 4910,
      "pers": 4911,
      "super": 4912,
      "tar": 4913,
      "tür": 4914,
      "ws": 4915,
      "xas": 4916,
      "Über": 4917,
      "erkl": 4918,
      "itter": 4919,
      "isher": 4920,
      "unde": 4921,
      "gezeigt": 4922,
      "orche": 4923,
      "asst": 4924,
      "schle": 4925,
      "schreit": 4926,
      "rac": 4927,
      "six": 4928,
      "weight": 4929,
      "oly": 4930,
      "dekor": 4931,
      "uten": 4932,
      "ammen": 4933,
      "shal": 4934,
      "riders": 4935,
      "Mänt": 4936,
      "seit": 4937,
      "bene": 4938,
      "verlassen": 4939,
      "adjust": 4940,
      "grö": 4941,
      "reide": 4942,
      "eds": 4943,
      "tail": 4944,
      "rena": 4945,
      "bucking": 4946,
      "Gewehr": 4947,
      "Spaz": 4948,
      "carpet": 4949,
      "carriage": 4950,
      "cheerlea": 4951,
      "backwards": 4952,
      "moves": 4953,
      "american": 4954,
      "sitzender": 4955,
      "sitzenden": 4956,
      "pajamas": 4957,
      "bage": 4958,
      "graben": 4959,
      "abzu": 4960,
      "socks": 4961,
      "shown": 4962,
      "Fotograf": 4963,
      "aurants": 4964,
      "bandanna": 4965,
      "iple": 4966,
      "ippen": 4967,
      "ippt": 4968,
      "akers": 4969,
      "schießen": 4970,
      "student": 4971,
      "laschen": 4972,
      "Studenten": 4973,
      "Arbeitskleidung": 4974,
      "stühlen": 4975,
      "ustic": 4976,
      "schnitt": 4977,
      "falls": 4978,
      "bunte": 4979,
      "musician": 4980,
      "Geschirr": 4981,
      "Waldgebiet": 4982,
      "Rollt": 4983,
      "marketplace": 4984,
      "appear": 4985,
      "mmert": 4986,
      "firefigh": 4987,
      "garbage": 4988,
      "Karten": 4989,
      "Karren": 4990,
      "Produ": 4991,
      "Gerät": 4992,
      "goldenen": 4993,
      "Plakat": 4994,
      "benutzen": 4995,
      "ausgestre": 4996,
      "jerseys": 4997,
      "happily": 4998,
      "entertain": 4999,
      "gewicht": 5000,
      "soldiers": 5001,
      "tube": 5002,
      "Besen": 5003,
      "feiern": 5004,
      "stretched": 5005,
      "cheering": 5006,
      "touching": 5007,
      "White": 5008,
      "tools": 5009,
      "Drachen": 5010,
      "goods": 5011,
      "hellhäutiger": 5012,
      "Matte": 5013,
      "suspended": 5014,
      "hurdle": 5015,
      "punkt": 5016,
      "mustach": 5017,
      "sized": 5018,
      "Schäfer": 5019,
      "soldier": 5020,
      "gitarre": 5021,
      "Geschenk": 5022,
      "Sommer": 5023,
      "Träger": 5024,
      "acoustic": 5025,
      "Neoprenanzug": 5026,
      "scaffolding": 5027,
      "Keyboard": 5028,
      "Tätowier": 5029,
      "either": 5030,
      ".\"": 5031,
      "Afroamerikan": 5032,
      "Ding": 5033,
      "Fä": 5034,
      "Fig": 5035,
      "Fans": 5036,
      "Feier": 5037,
      "Jungs": 5038,
      "Lin": 5039,
      "Sil": 5040,
      "Vö": 5041,
      "Wild": 5042,
      "Zie": 5043,
      "cling": 5044,
      "dim": 5045,
      "ears": 5046,
      "heir": 5047,
      "harn": 5048,
      "kte": 5049,
      "kalten": 5050,
      "mten": 5051,
      "money": 5052,
      "rugby": 5053,
      "sor": 5054,
      "snack": 5055,
      "tut": 5056,
      "tätow": 5057,
      "ude": 5058,
      "vic": 5059,
      "wischt": 5060,
      "ziel": 5061,
      "äch": 5062,
      "öhn": 5063,
      "invol": 5064,
      "emer": 5065,
      "lehnen": 5066,
      "thum": 5067,
      "reg": 5068,
      "gehalten": 5069,
      "order": 5070,
      "organ": 5071,
      "eilt": 5072,
      "ility": 5073,
      "peer": 5074,
      "alleine": 5075,
      "bekleidung": 5076,
      "begut": 5077,
      "boun": 5078,
      "neu": 5079,
      "plaza": 5080,
      "Schot": 5081,
      "heels": 5082,
      "ades": 5083,
      "live": 5084,
      "living": 5085,
      "kler": 5086,
      "Hundes": 5087,
      "hound": 5088,
      "airport": 5089,
      "gelt": 5090,
      "Gewand": 5091,
      "crosse": 5092,
      "gerüst": 5093,
      "änder": 5094,
      "checker": 5095,
      "Theke": 5096,
      "hay": 5097,
      "broom": 5098,
      "blondem": 5099,
      "Seven": 5100,
      "sail": 5101,
      "museum": 5102,
      "obsta": 5103,
      "shoot": 5104,
      "ations": 5105,
      "barre": 5106,
      "ipes": 5107,
      "underwater": 5108,
      "gnü": 5109,
      "stove": 5110,
      "Berges": 5111,
      "teamm": 5112,
      "paints": 5113,
      "parach": 5114,
      "sleev": 5115,
      "Tennisschläger": 5116,
      "serving": 5117,
      "passen": 5118,
      "Bahnsteig": 5119,
      "Polo": 5120,
      "disk": 5121,
      "acting": 5122,
      "selts": 5123,
      "landscape": 5124,
      "Rucksä": 5125,
      "backpacks": 5126,
      "Motocross": 5127,
      "Protest": 5128,
      "mannschaft": 5129,
      "Ort": 5130,
      "welding": 5131,
      "Gemäl": 5132,
      "Saxoph": 5133,
      "jagen": 5134,
      "hilfe": 5135,
      "kneels": 5136,
      "befestigt": 5137,
      "Male": 5138,
      "John": 5139,
      "dining": 5140,
      "Flughafen": 5141,
      "animals": 5142,
      "Handtuch": 5143,
      "Weihnachtsbaum": 5144,
      "Street": 5145,
      "Turnhalle": 5146,
      "hooded": 5147,
      "heim": 5148,
      "ärmellosen": 5149,
      "advertisement": 5150,
      "glücklich": 5151,
      "zäunten": 5152,
      "chinesischen": 5153,
      "sporting": 5154,
      "athletic": 5155,
      "Trommel": 5156,
      "Jahrmarkt": 5157,
      "magazine": 5158,
      "gesäumten": 5159,
      "caught": 5160,
      "Schnurr": 5161,
      "Kapuzenpulli": 5162,
      "entfernt": 5163,
      "McDon": 5164,
      "hawk": 5165,
      "escalator": 5166,
      "konzentriert": 5167,
      "Nahaufnahme": 5168,
      "Auftritt": 5169,
      "Mänteln": 5170,
      "Spazier": 5171,
      "Schäferhund": 5172,
      "Figur": 5173,
      "obstacle": 5174,
      "sleeved": 5175,
      "Ast": 5176,
      "Brot": 5177,
      "Cam": 5178,
      "Cafe": 5179,
      "Dor": 5180,
      "Fläche": 5181,
      "Ketten": 5182,
      "Koffer": 5183,
      "Pier": 5184,
      "Tattoo": 5185,
      "Vi": 5186,
      "Zement": 5187,
      "cycle": 5188,
      "casian": 5189,
      "hist": 5190,
      "ible": 5191,
      "ique": 5192,
      "kau": 5193,
      "kugel": 5194,
      "mom": 5195,
      "nass": 5196,
      "pige": 5197,
      "runden": 5198,
      "tw": 5199,
      "yhound": 5200,
      "öte": 5201,
      "onne": 5202,
      "sters": 5203,
      "strand": 5204,
      "rechten": 5205,
      "rout": 5206,
      "geblü": 5207,
      "iron": 5208,
      "scher": 5209,
      "hrt": 5210,
      "tery": 5211,
      "terback": 5212,
      "amus": 5213,
      "Sta": 5214,
      "Stapel": 5215,
      "seems": 5216,
      "bending": 5217,
      "bends": 5218,
      "Schiff": 5219,
      "heart": 5220,
      "liqu": 5221,
      "klat": 5222,
      "reichen": 5223,
      "herab": 5224,
      "trump": 5225,
      "entgegen": 5226,
      "läsern": 5227,
      "Spor": 5228,
      "elling": 5229,
      "runners": 5230,
      "thrown": 5231,
      "Handstand": 5232,
      "gravel": 5233,
      "ffy": 5234,
      "ffel": 5235,
      "Segel": 5236,
      "half": 5237,
      "Skulptur": 5238,
      "Ballon": 5239,
      "haircut": 5240,
      "rests": 5241,
      "gestell": 5242,
      "sets": 5243,
      "besp": 5244,
      "aterial": 5245,
      "climber": 5246,
      "geschla": 5247,
      "float": 5248,
      "exer": 5249,
      "trainiert": 5250,
      "Frü": 5251,
      "lächelndes": 5252,
      "Bekleidung": 5253,
      "Wandbild": 5254,
      "crew": 5255,
      "ption": 5256,
      "polka": 5257,
      "drive": 5258,
      "Bahnhof": 5259,
      "shaped": 5260,
      "shadow": 5261,
      "garage": 5262,
      "elek": 5263,
      "Prof": 5264,
      "grilling": 5265,
      "German": 5266,
      "geschäftigen": 5267,
      "Blond": 5268,
      "offenem": 5269,
      "jemanden": 5270,
      "Müllt": 5271,
      "Rollerblades": 5272,
      "Farbe": 5273,
      "Soldat": 5274,
      "you": 5275,
      "gewickelt": 5276,
      "Tromp": 5277,
      "Weihnachtsmann": 5278,
      "brushing": 5279,
      "pony": 5280,
      "ropes": 5281,
      "operating": 5282,
      "neckla": 5283,
      "Wohnzimmer": 5284,
      "decorated": 5285,
      "examining": 5286,
      "print": 5287,
      "participating": 5288,
      "Angelr": 5289,
      "Labor": 5290,
      "Gegenstände": 5291,
      "2012": 5292,
      "hölzer": 5293,
      "legestelle": 5294,
      "referee": 5295,
      "Rolltreppe": 5296,
      "harness": 5297,
      "checkered": 5298,
      "amusement": 5299,
      "trumpet": 5300,
      "Arena": 5301,
      "DJ": 5302,
      "Dau": 5303,
      "Elter": 5304,
      "Fing": 5305,
      "Gang": 5306,
      "Gold": 5307,
      "Gassi": 5308,
      "Häu": 5309,
      "High": 5310,
      "Kla": 5311,
      "Oze": 5312,
      "Pär": 5313,
      "Pfosten": 5314,
      "Pfütze": 5315,
      "Rä": 5316,
      "Sü": 5317,
      "Topf": 5318,
      "Vers": 5319,
      "Ze": 5320,
      "aster": 5321,
      "bör": 5322,
      "cone": 5323,
      "come": 5324,
      "cyclists": 5325,
      "dump": 5326,
      "fter": 5327,
      "hy": 5328,
      "hers": 5329,
      "haufen": 5330,
      "kol": 5331,
      "lö": 5332,
      "mow": 5333,
      "maten": 5334,
      "oc": 5335,
      "pine": 5336,
      "rutsche": 5337,
      "sink": 5338,
      "summer": 5339,
      "wild": 5340,
      "wide": 5341,
      "enth": 5342,
      "ana": 5343,
      "chop": 5344,
      "stall": 5345,
      "stange": 5346,
      "steilen": 5347,
      "thin": 5348,
      "thers": 5349,
      "ress": 5350,
      "alb": 5351,
      "also": 5352,
      "ros": 5353,
      "rowing": 5354,
      "gelehnt": 5355,
      "schü": 5356,
      "Mannschaften": 5357,
      "sive": 5358,
      "ilt": 5359,
      "pedestrians": 5360,
      "bean": 5361,
      "utel": 5362,
      "sharing": 5363,
      "oping": 5364,
      "loc": 5365,
      "neh": 5366,
      "ribb": 5367,
      "Scheibe": 5368,
      "iere": 5369,
      "demon": 5370,
      "coach": 5371,
      "ike": 5372,
      "possi": 5373,
      "appen": 5374,
      "wagon": 5375,
      "Gegner": 5376,
      "Spitze": 5377,
      "änken": 5378,
      "rub": 5379,
      "stehend": 5380,
      "things": 5381,
      "Hocke": 5382,
      "hinein": 5383,
      "musik": 5384,
      "Ballons": 5385,
      "wegung": 5386,
      "brücke": 5387,
      "quet": 5388,
      "ways": 5389,
      "Freizeit": 5390,
      "headscarf": 5391,
      "jungle": 5392,
      "daneben": 5393,
      "barbecue": 5394,
      "zeichen": 5395,
      "Texas": 5396,
      "setzen": 5397,
      "ihres": 5398,
      "dune": 5399,
      "attempt": 5400,
      "Sonnenbrillen": 5401,
      "benches": 5402,
      "sandwich": 5403,
      "Motorrädern": 5404,
      "Behälter": 5405,
      "Baseballkappe": 5406,
      "Kleiner": 5407,
      "sticking": 5408,
      "knit": 5409,
      "Kunststücke": 5410,
      "Restaurants": 5411,
      "ience": 5412,
      "shaw": 5413,
      "boxing": 5414,
      "landschaft": 5415,
      "compete": 5416,
      "eleph": 5417,
      "kochen": 5418,
      "feeding": 5419,
      "amerikanischen": 5420,
      "Orche": 5421,
      "Hafen": 5422,
      "pitch": 5423,
      "tags": 5424,
      "practice": 5425,
      "hitting": 5426,
      "turning": 5427,
      "creme": 5428,
      "vehicles": 5429,
      "youth": 5430,
      "photographs": 5431,
      "Bushal": 5432,
      "Wettbewerb": 5433,
      "vision": 5434,
      "Heu": 5435,
      "muddy": 5436,
      "ssig": 5437,
      "Strom": 5438,
      "individual": 5439,
      "männer": 5440,
      "crouches": 5441,
      "silbernen": 5442,
      "candy": 5443,
      "Werkzeug": 5444,
      "bewöl": 5445,
      "Zahn": 5446,
      "Füßen": 5447,
      "activ": 5448,
      "control": 5449,
      "hallway": 5450,
      "Traktor": 5451,
      "Japanese": 5452,
      "teacher": 5453,
      "Mountainbike": 5454,
      "cussion": 5455,
      "komplett": 5456,
      "presentation": 5457,
      "kahlköpfiger": 5458,
      "brünette": 5459,
      "excited": 5460,
      "Brown": 5461,
      "nähert": 5462,
      "schaufelt": 5463,
      "frisbee": 5464,
      "weint": 5465,
      "opponent": 5466,
      "bathroom": 5467,
      "streichelt": 5468,
      "türkis": 5469,
      "orchestra": 5470,
      "Trägerhemd": 5471,
      "Gemälde": 5472,
      "exerc": 5473,
      "hölzernen": 5474,
      "Daumen": 5475,
      "Eltern": 5476,
      "Pärchen": 5477,
      "Bushaltestelle": 5478,
      "Bat": 5479,
      "Dread": 5480,
      "Flo": 5481,
      "Hürde": 5482,
      "Kisten": 5483,
      "Sub": 5484,
      "Tim": 5485,
      "ale": 5486,
      "bill": 5487,
      "cot": 5488,
      "ceil": 5489,
      "cess": 5490,
      "dd": 5491,
      "duck": 5492,
      "ek": 5493,
      "fla": 5494,
      "hten": 5495,
      "hack": 5496,
      "ior": 5497,
      "mal": 5498,
      "mot": 5499,
      "nes": 5500,
      "native": 5501,
      "piel": 5502,
      "supp": 5503,
      "öcke": 5504,
      "iny": 5505,
      "inery": 5506,
      "anzen": 5507,
      "chin": 5508,
      "chan": 5509,
      "only": 5510,
      "stem": 5511,
      "stoff": 5512,
      "leger": 5513,
      "leaf": 5514,
      "thday": 5515,
      "atu": 5516,
      "attent": 5517,
      "etrack": 5518,
      "schwer": 5519,
      "lamp": 5520,
      "racer": 5521,
      "defen": 5522,
      "imon": 5523,
      "spritzt": 5524,
      "loading": 5525,
      "Stier": 5526,
      "umge": 5527,
      "sechs": 5528,
      "heit": 5529,
      "herd": 5530,
      "tru": 5531,
      "Menschengruppe": 5532,
      "gern": 5533,
      "motocross": 5534,
      "jumpsuit": 5535,
      "digen": 5536,
      "snowboard": 5537,
      "snowboarding": 5538,
      "cleans": 5539,
      "verse": 5540,
      "jewel": 5541,
      "muzz": 5542,
      "puck": 5543,
      "merks": 5544,
      "doors": 5545,
      "Inlines": 5546,
      "bars": 5547,
      "guitars": 5548,
      "zusammenge": 5549,
      "Stadtstraße": 5550,
      "treffen": 5551,
      "Pferdes": 5552,
      "cape": 5553,
      "Bildschirm": 5554,
      "viewing": 5555,
      "händler": 5556,
      "ffitis": 5557,
      "pull": 5558,
      "passeng": 5559,
      "skateboards": 5560,
      "hüter": 5561,
      "Deck": 5562,
      "Freil": 5563,
      "machinery": 5564,
      "Steinmauer": 5565,
      "drummer": 5566,
      "Graffitis": 5567,
      "Socken": 5568,
      "Rennwagen": 5569,
      "Rennauto": 5570,
      "Zuschauermenge": 5571,
      "Getränken": 5572,
      "patio": 5573,
      "rollersk": 5574,
      "fruits": 5575,
      "Skatepark": 5576,
      "Jugendliche": 5577,
      "ggings": 5578,
      "zahl": 5579,
      "streifen": 5580,
      "China": 5581,
      "Dieses": 5582,
      "Einkaufszentrum": 5583,
      "turns": 5584,
      "Speisen": 5585,
      "Sitz": 5586,
      "slides": 5587,
      "heißen": 5588,
      "beschäft": 5589,
      "Kletterer": 5590,
      "Passag": 5591,
      "figure": 5592,
      "jüngeren": 5593,
      "Kopfhörern": 5594,
      "joggt": 5595,
      "bewund": 5596,
      "wunderschönen": 5597,
      "schmutzigen": 5598,
      "geparkt": 5599,
      "Krankenhaus": 5600,
      "Luftballons": 5601,
      "Hammer": 5602,
      "neigh": 5603,
      "speech": 5604,
      "sword": 5605,
      "policeman": 5606,
      "remo": 5607,
      "periment": 5608,
      "racetrack": 5609,
      "ausgestreckten": 5610,
      "mustache": 5611,
      "Saxophon": 5612,
      "Schnurrbart": 5613,
      "Klavier": 5614,
      "Orchester": 5615,
      "Dreadlocks": 5616,
      "passengers": 5617,
      "Brand": 5618,
      "Car": 5619,
      "Crow": 5620,
      "Fass": 5621,
      "Fire": 5622,
      "Gre": 5623,
      "Gür": 5624,
      "Hil": 5625,
      "Kies": 5626,
      "Körper": 5627,
      "Min": 5628,
      "Nicker": 5629,
      "On": 5630,
      "Run": 5631,
      "Show": 5632,
      "Ton": 5633,
      "Warn": 5634,
      "aber": 5635,
      "astern": 5636,
      "bin": 5637,
      "brau": 5638,
      "bür": 5639,
      "brennen": 5640,
      "ctron": 5641,
      "flau": 5642,
      "got": 5643,
      "hmaschine": 5644,
      "ider": 5645,
      "ichen": 5646,
      "late": 5647,
      "luft": 5648,
      "narrow": 5649,
      "pri": 5650,
      "pped": 5651,
      "song": 5652,
      "uba": 5653,
      "öt": 5654,
      "itzt": 5655,
      "arr": 5656,
      "ativ": 5657,
      "rough": 5658,
      "aufs": 5659,
      "mitglie": 5660,
      "schwach": 5661,
      "spo": 5662,
      "spital": 5663,
      "ament": 5664,
      "tents": 5665,
      "loy": 5666,
      "urt": 5667,
      "weis": 5668,
      "Stab": 5669,
      "Schlei": 5670,
      "ilet": 5671,
      "Mädchens": 5672,
      "ends": 5673,
      "hospital": 5674,
      "apple": 5675,
      "buch": 5676,
      "Anlegestelle": 5677,
      "intersection": 5678,
      "skulptur": 5679,
      "dread": 5680,
      "ängen": 5681,
      "rudert": 5682,
      "design": 5683,
      "boardwalk": 5684,
      "brow": 5685,
      "langhaariger": 5686,
      "bikers": 5687,
      "jects": 5688,
      "älteres": 5689,
      "drill": 5690,
      "Balls": 5691,
      "colle": 5692,
      "Hinterhof": 5693,
      "Bauch": 5694,
      "ceremon": 5695,
      "headband": 5696,
      "Rede": 5697,
      "vorbeifährt": 5698,
      "Nähmaschine": 5699,
      "Gitarrist": 5700,
      "rosafarbenem": 5701,
      "ichtern": 5702,
      "stud": 5703,
      "speak": 5704,
      "Motorroller": 5705,
      "Sanddü": 5706,
      "exhi": 5707,
      "Baseballspiel": 5708,
      "Baseballmütze": 5709,
      "horseback": 5710,
      "leaving": 5711,
      "petting": 5712,
      "hillside": 5713,
      "geboren": 5714,
      "aschinen": 5715,
      "discussion": 5716,
      "Herbst": 5717,
      "presen": 5718,
      "electron": 5719,
      "Schutzbrille": 5720,
      "sells": 5721,
      "Outfits": 5722,
      "Bike": 5723,
      "Typen": 5724,
      "borhood": 5725,
      "stopped": 5726,
      "direkt": 5727,
      "automaten": 5728,
      "baskets": 5729,
      "ührung": 5730,
      "Geldbör": 5731,
      "Bowlingbahn": 5732,
      "observe": 5733,
      "füttert": 5734,
      "first": 5735,
      "Zahl": 5736,
      "Füße": 5737,
      "Kegel": 5738,
      "ference": 5739,
      "navig": 5740,
      "entrance": 5741,
      "ATV": 5742,
      "bushes": 5743,
      "Flüssig": 5744,
      "Kreuzung": 5745,
      "beverage": 5746,
      "einzelner": 5747,
      "Modell": 5748,
      "diskut": 5749,
      "Dorf": 5750,
      "routine": 5751,
      "Fingern": 5752,
      "Rädern": 5753,
      "herself": 5754,
      "possibly": 5755,
      "rubber": 5756,
      "ceiling": 5757,
      "merksam": 5758,
      "Inlinesk": 5759,
      "Freiluft": 5760,
      "beschäftigt": 5761,
      "Nickerchen": 5762,
      "electronic": 5763,
      "10": 5764,
      "Bi": 5765,
      "Blas": 5766,
      "Bänken": 5767,
      "Clu": 5768,
      "Demon": 5769,
      "Gumm": 5770,
      "Hütte": 5771,
      "Jung": 5772,
      "Kör": 5773,
      "Klap": 5774,
      "LK": 5775,
      "Lar": 5776,
      "Mess": 5777,
      "Plü": 5778,
      "Röcken": 5779,
      "Squ": 5780,
      "Super": 5781,
      "Wänden": 5782,
      "aking": 5783,
      "ahead": 5784,
      "bund": 5785,
      "bas": 5786,
      "bie": 5787,
      "bass": 5788,
      "cab": 5789,
      "clap": 5790,
      "clay": 5791,
      "dor": 5792,
      "dol": 5793,
      "eur": 5794,
      "fau": 5795,
      "flat": 5796,
      "findet": 5797,
      "hom": 5798,
      "hugs": 5799,
      "ivers": 5800,
      "ially": 5801,
      "japan": 5802,
      "ku": 5803,
      "kaut": 5804,
      "ld": 5805,
      "maro": 5806,
      "mpic": 5807,
      "mmer": 5808,
      "malen": 5809,
      "pump": 5810,
      "pipes": 5811,
      "ris": 5812,
      "runter": 5813,
      "vo": 5814,
      "val": 5815,
      "ware": 5816,
      "wanne": 5817,
      "wife": 5818,
      "Är": 5819,
      "äften": 5820,
      "intent": 5821,
      "anhat": 5822,
      "anlage": 5823,
      "stones": 5824,
      "ata": 5825,
      "asa": 5826,
      "mithilfe": 5827,
      "wol": 5828,
      "wohner": 5829,
      "schutz": 5830,
      "schmuck": 5831,
      "bearbeitet": 5832,
      "utschen": 5833,
      "dot": 5834,
      "riot": 5835,
      "Stof": 5836,
      "Start": 5837,
      "Stamm": 5838,
      "Strick": 5839,
      "seats": 5840,
      "Schacht": 5841,
      "verheir": 5842,
      "lig": 5843,
      "indische": 5844,
      "reiche": 5845,
      "beißt": 5846,
      "outstretched": 5847,
      "cobble": 5848,
      "Grün": 5849,
      "hoops": 5850,
      "wai": 5851,
      "ulen": 5852,
      "smok": 5853,
      "skates": 5854,
      "fencing": 5855,
      "modern": 5856,
      "weißt": 5857,
      "odd": 5858,
      "dicht": 5859,
      "consi": 5860,
      "condu": 5861,
      "lust": 5862,
      "helps": 5863,
      "Bauern": 5864,
      "breitet": 5865,
      "bett": 5866,
      "ktur": 5867,
      "aked": 5868,
      "armon": 5869,
      "sweat": 5870,
      "Gelb": 5871,
      "microphones": 5872,
      "essel": 5873,
      "Kleines": 5874,
      "kariertem": 5875,
      "Kunstwerk": 5876,
      "motorcyclist": 5877,
      "Frisbe": 5878,
      "folding": 5879,
      "Ruder": 5880,
      "Herd": 5881,
      "cours": 5882,
      "selbst": 5883,
      "Regenschirmen": 5884,
      "Schule": 5885,
      "liegenden": 5886,
      "Outdoor": 5887,
      "Cola": 5888,
      "steinigen": 5889,
      "Blume": 5890,
      "Gewässers": 5891,
      "Einkaufst": 5892,
      "lachend": 5893,
      "batter": 5894,
      "smoke": 5895,
      "konstruktion": 5896,
      "trocken": 5897,
      "Feuerwehrmänner": 5898,
      "patient": 5899,
      "können": 5900,
      "squatting": 5901,
      "bottles": 5902,
      "öpfe": 5903,
      "ctory": 5904,
      "buckets": 5905,
      "Balken": 5906,
      "tattooed": 5907,
      "african": 5908,
      "Schlagzeuger": 5909,
      "violettem": 5910,
      "älle": 5911,
      "Bowlingkugel": 5912,
      "Plastikt": 5913,
      "Klettergerüst": 5914,
      "cardboard": 5915,
      "Dreck": 5916,
      "afrikanischer": 5917,
      "Elmo": 5918,
      "indoors": 5919,
      "berühren": 5920,
      "celebrating": 5921,
      "ornate": 5922,
      "Trainings": 5923,
      "dishes": 5924,
      "mixing": 5925,
      "USA": 5926,
      "mostly": 5927,
      "fancy": 5928,
      "navy": 5929,
      "Windhund": 5930,
      "marschiert": 5931,
      "Olympic": 5932,
      "Schlafanzug": 5933,
      "Strohhut": 5934,
      "mög": 5935,
      "Heiß": 5936,
      "puppy": 5937,
      "amüsieren": 5938,
      "aufblasbaren": 5939,
      "Fotografen": 5940,
      "Rettungswe": 5941,
      "Lady": 5942,
      "nchron": 5943,
      "Dinge": 5944,
      "Rucksäcken": 5945,
      "histor": 5946,
      "geblümten": 5947,
      "Trompete": 5948,
      "Angelrute": 5949,
      "Süß": 5950,
      "neighborhood": 5951,
      "flausch": 5952,
      "Demonstr": 5953,
      "Large": 5954,
      "maroon": 5955,
      "Ap": 5956,
      "Dar": 5957,
      "Dis": 5958,
      "Ess": 5959,
      "Ent": 5960,
      "Flie": 5961,
      "Har": 5962,
      "Hau": 5963,
      "Kugel": 5964,
      "Lö": 5965,
      "Lied": 5966,
      "Lippen": 5967,
      "Noten": 5968,
      "Oper": 5969,
      "Pad": 5970,
      "Plat": 5971,
      "Platt": 5972,
      "She": 5973,
      "Tran": 5974,
      "Teig": 5975,
      "Tafel": 5976,
      "bies": 5977,
      "cade": 5978,
      "cricket": 5979,
      "deln": 5980,
      "dün": 5981,
      "edo": 5982,
      "fu": 5983,
      "flachen": 5984,
      "finger": 5985,
      "gall": 5986,
      "glatz": 5987,
      "kun": 5988,
      "kite": 5989,
      "litt": 5990,
      "mmen": 5991,
      "oween": 5992,
      "pop": 5993,
      "patch": 5994,
      "rück": 5995,
      "rural": 5996,
      "sstand": 5997,
      "trot": 5998,
      "uum": 5999,
      "writ": 6000,
      "zelt": 6001,
      "iner": 6002,
      "insp": 6003,
      "inner": 6004,
      "item": 6005,
      "itzen": 6006,
      "iture": 6007,
      "embra": 6008,
      "stro": 6009,
      "steinen": 6010,
      "ished": 6011,
      "thek": 6012,
      "ets": 6013,
      "schlen": 6014,
      "schweißt": 6015,
      "derby": 6016,
      "hren": 6017,
      "ilts": 6018,
      "pee": 6019,
      "dead": 6020,
      "blät": 6021,
      "bestehende": 6022,
      "spark": 6023,
      "sprit": 6024,
      "sperr": 6025,
      "amid": 6026,
      "doctor": 6027,
      "ared": 6028,
      "Stift": 6029,
      "seas": 6030,
      "secur": 6031,
      "bert": 6032,
      "Schub": 6033,
      "Schlitt": 6034,
      "ommen": 6035,
      "iddle": 6036,
      "waren": 6037,
      "grand": 6038,
      "reicht": 6039,
      "otard": 6040,
      "fort": 6041,
      "taxi": 6042,
      "rench": 6043,
      "frem": 6044,
      "buy": 6045,
      "ontrol": 6046,
      "carving": 6047,
      "trag": 6048,
      "desig": 6049,
      "moun": 6050,
      "moment": 6051,
      "great": 6052,
      "fegt": 6053,
      "feuert": 6054,
      "ließt": 6055,
      "artigen": 6056,
      "Spielkleidung": 6057,
      "ckeys": 6058,
      "handstand": 6059,
      "waschen": 6060,
      "Mex": 6061,
      "ills": 6062,
      "brary": 6063,
      "Gesprä": 6064,
      "pical": 6065,
      "merch": 6066,
      "scuba": 6067,
      "guitarist": 6068,
      "ktive": 6069,
      "jockey": 6070,
      "stripes": 6071,
      "uniformed": 6072,
      "altes": 6073,
      "Straßenhändler": 6074,
      "Sandstrand": 6075,
      "gift": 6076,
      "Schwimmbad": 6077,
      "training": 6078,
      "gegenseit": 6079,
      "Becken": 6080,
      "storefront": 6081,
      "coloring": 6082,
      "packt": 6083,
      "nets": 6084,
      "balance": 6085,
      "bowls": 6086,
      "swimmer": 6087,
      "flops": 6088,
      "Eisen": 6089,
      "dunkelblauen": 6090,
      "urniture": 6091,
      "pieces": 6092,
      "firetruck": 6093,
      "newly": 6094,
      "riesige": 6095,
      "Zeitschrift": 6096,
      "silhouette": 6097,
      "draht": 6098,
      "Moped": 6099,
      "Umhang": 6100,
      "wheels": 6101,
      "stares": 6102,
      "calf": 6103,
      "point": 6104,
      "Konferen": 6105,
      "born": 6106,
      "blows": 6107,
      "crash": 6108,
      "Feuerwehrle": 6109,
      "Feuerwehrmann": 6110,
      "näch": 6111,
      "scenery": 6112,
      "flipping": 6113,
      "Kleider": 6114,
      "medical": 6115,
      "tattoos": 6116,
      "Kerzen": 6117,
      "bildschirm": 6118,
      "beigefarbenen": 6119,
      "funny": 6120,
      "ethnic": 6121,
      "spraying": 6122,
      "Lebensmittelgeschäft": 6123,
      "Cheerleaders": 6124,
      "member": 6125,
      "issenschaft": 6126,
      "Dreir": 6127,
      "stretching": 6128,
      "Abendessen": 6129,
      "crouching": 6130,
      "afrikanische": 6131,
      "Wasserski": 6132,
      "crafts": 6133,
      "reflective": 6134,
      "Geländemotorradfahrer": 6135,
      "Backsteingebäude": 6136,
      "choir": 6137,
      "aufgere": 6138,
      "Elef": 6139,
      "Hotel": 6140,
      "erwachsene": 6141,
      "film": 6142,
      "geschmink": 6143,
      "marschieren": 6144,
      "Olymp": 6145,
      "sleeveless": 6146,
      "trennen": 6147,
      "sammelt": 6148,
      "Schneesch": 6149,
      "inspecting": 6150,
      "jubeln": 6151,
      "Picknicktisch": 6152,
      "Bluejeans": 6153,
      "rampe": 6154,
      "grinding": 6155,
      "apartment": 6156,
      "Pitcher": 6157,
      "vacuum": 6158,
      "Bordstein": 6159,
      "Dudel": 6160,
      "Kamel": 6161,
      "spinning": 6162,
      "Lehrer": 6163,
      "schwenkt": 6164,
      "isherman": 6165,
      "cheerleaders": 6166,
      "begutachtet": 6167,
      "Schotter": 6168,
      "luftball": 6169,
      "dreadlocks": 6170,
      "Flüssigkeit": 6171,
      "Square": 6172,
      "smokes": 6173,
      "Heißluftball": 6174,
      "Operation": 6175,
      "Plattform": 6176,
      "kunft": 6177,
      "Schubkar": 6178,
      "Gespräch": 6179,
      "gegenseitig": 6180,
      "Ble": 6181,
      "Bur": 6182,
      "Esel": 6183,
      "Gym": 6184,
      "Kür": 6185,
      "Kiste": 6186,
      "Kalb": 6187,
      "Löff": 6188,
      "Läch": 6189,
      "Mult": 6190,
      "Middle": 6191,
      "Natur": 6192,
      "Puck": 6193,
      "Rauch": 6194,
      "Smo": 6195,
      "Swimm": 6196,
      "Yo": 6197,
      "ails": 6198,
      "bunter": 6199,
      "cop": 6200,
      "flam": 6201,
      "furniture": 6202,
      "gs": 6203,
      "name": 6204,
      "nasi": 6205,
      "ness": 6206,
      "naked": 6207,
      "py": 6208,
      "rons": 6209,
      "tick": 6210,
      "tied": 6211,
      "tstag": 6212,
      "usi": 6213,
      "ument": 6214,
      "wöhn": 6215,
      "zte": 6216,
      "Öff": 6217,
      "ämmer": 6218,
      "anzu": 6219,
      "anien": 6220,
      "chicken": 6221,
      "stom": 6222,
      "stap": 6223,
      "Einer": 6224,
      "reiter": 6225,
      "elten": 6226,
      "isle": 6227,
      "gepunkt": 6228,
      "ckter": 6229,
      "theater": 6230,
      "etzt": 6231,
      "ragen": 6232,
      "rabb": 6233,
      "tower": 6234,
      "simil": 6235,
      "olo": 6236,
      "dest": 6237,
      "befahren": 6238,
      "bekommen": 6239,
      "boul": 6240,
      "sper": 6241,
      "spread": 6242,
      "uts": 6243,
      "opoly": 6244,
      "los": 6245,
      "lounge": 6246,
      "ney": 6247,
      "seem": 6248,
      "gency": 6249,
      "Schwe": 6250,
      "fte": 6251,
      "techn": 6252,
      "library": 6253,
      "vorne": 6254,
      "ungewöhn": 6255,
      "outs": 6256,
      "igkeit": 6257,
      "houses": 6258,
      "gelassen": 6259,
      "Gebur": 6260,
      "ontä": 6261,
      "untersuchen": 6262,
      "gericht": 6263,
      "skul": 6264,
      "rings": 6265,
      "Theater": 6266,
      "backs": 6267,
      "moped": 6268,
      "greyhound": 6269,
      "Wasserflasche": 6270,
      "broken": 6271,
      "Fahrt": 6272,
      "Fahrgeschäft": 6273,
      "ody": 6274,
      "dazu": 6275,
      "Ausst": 6276,
      "zenden": 6277,
      "conference": 6278,
      "wirbelt": 6279,
      "abel": 6280,
      "abri": 6281,
      "parkt": 6282,
      "drückt": 6283,
      "brä": 6284,
      "bris": 6285,
      "objects": 6286,
      "comfor": 6287,
      "hochge": 6288,
      "Fußballfeld": 6289,
      "Grasfläche": 6290,
      "Gitarren": 6291,
      "graue": 6292,
      "altmod": 6293,
      "speed": 6294,
      "Tricks": 6295,
      "Jeansjacke": 6296,
      "etti": 6297,
      "rollt": 6298,
      "Verkäufer": 6299,
      "trainieren": 6300,
      "motorbike": 6301,
      "Robe": 6302,
      "bunt": 6303,
      "Geschäften": 6304,
      "balding": 6305,
      "partment": 6306,
      "partially": 6307,
      "Musikinstrumen": 6308,
      "flü": 6309,
      "Friseur": 6310,
      "gebunden": 6311,
      "rainy": 6312,
      "folded": 6313,
      "noch": 6314,
      "dunkelhaariger": 6315,
      "planscht": 6316,
      "ienen": 6317,
      "cuts": 6318,
      "Mitarbeiter": 6319,
      "Mittag": 6320,
      "Herren": 6321,
      "Geschäftskleidung": 6322,
      "boxen": 6323,
      "Badewanne": 6324,
      "nighttime": 6325,
      "stairway": 6326,
      "Sportwagen": 6327,
      "Sportveranstaltung": 6328,
      "surrounding": 6329,
      "banner": 6330,
      "calm": 6331,
      "birthday": 6332,
      "Orangen": 6333,
      "gymnasi": 6334,
      "Torhüter": 6335,
      "offenbar": 6336,
      "computers": 6337,
      "balances": 6338,
      "turned": 6339,
      "listens": 6340,
      "crane": 6341,
      "Jockey": 6342,
      "lifting": 6343,
      "Girls": 6344,
      "vegetable": 6345,
      "Fahne": 6346,
      "Tauben": 6347,
      "farbenfroher": 6348,
      "Schwert": 6349,
      "farbige": 6350,
      "Surfboard": 6351,
      "raises": 6352,
      "köpfige": 6353,
      "wandern": 6354,
      "figur": 6355,
      "sofa": 6356,
      "jüngere": 6357,
      "entspannen": 6358,
      "Ohren": 6359,
      "Wassersp": 6360,
      "candles": 6361,
      "Fernse": 6362,
      "Sängerin": 6363,
      "Waschsalon": 6364,
      "gymnastic": 6365,
      "escheibe": 6366,
      "säge": 6367,
      "following": 6368,
      "yloph": 6369,
      "Turnerin": 6370,
      "kopfüber": 6371,
      "unicycle": 6372,
      "Grimasse": 6373,
      "approaching": 6374,
      "Wettrennen": 6375,
      "fluffy": 6376,
      "Film": 6377,
      "discussing": 6378,
      "Palmen": 6379,
      "dimly": 6380,
      "barrel": 6381,
      "pigeons": 6382,
      "nehmer": 6383,
      "demonstr": 6384,
      "bewölkten": 6385,
      "Brandung": 6386,
      "Hilfe": 6387,
      "Sanddüne": 6388,
      "Geldbörse": 6389,
      "Klapp": 6390,
      "LKW": 6391,
      "intently": 6392,
      "Frisbeescheibe": 6393,
      "Süßigkeiten": 6394,
      "Gymna": 6395,
      "Lächeln": 6396,
      "similar": 6397,
      "Geburtstag": 6398,
      "gymnasium": 6399,
      "Ad": 6400,
      "Achter": 6401,
      "Abs": 6402,
      "Beine": 6403,
      "Can": 6404,
      "Chor": 6405,
      "Flaschen": 6406,
      "Hall": 6407,
      "Home": 6408,
      "Iro": 6409,
      "Kom": 6410,
      "Khaki": 6411,
      "Kricket": 6412,
      "Kreide": 6413,
      "Lang": 6414,
      "Laufen": 6415,
      "Med": 6416,
      "Pel": 6417,
      "Pil": 6418,
      "Piste": 6419,
      "Ringer": 6420,
      "Sar": 6421,
      "Tanzen": 6422,
      "ather": 6423,
      "bückt": 6424,
      "bino": 6425,
      "clad": 6426,
      "cameras": 6427,
      "dlers": 6428,
      "finder": 6429,
      "gä": 6430,
      "gers": 6431,
      "gger": 6432,
      "hug": 6433,
      "hits": 6434,
      "ives": 6435,
      "kle": 6436,
      "material": 6437,
      "ole": 6438,
      "papers": 6439,
      "reinigen": 6440,
      "sad": 6441,
      "sod": 6442,
      "slight": 6443,
      "treibt": 6444,
      "uhen": 6445,
      "wendet": 6446,
      "wurf": 6447,
      "zone": 6448,
      "enk": 6449,
      "engen": 6450,
      "erous": 6451,
      "erleucht": 6452,
      "onen": 6453,
      "stol": 6454,
      "Einrad": 6455,
      "leckt": 6456,
      "thlet": 6457,
      "reli": 6458,
      "recor": 6459,
      "alung": 6460,
      "isammen": 6461,
      "rod": 6462,
      "gebeugt": 6463,
      "gefüllt": 6464,
      "aufzu": 6465,
      "rast": 6466,
      "ilst": 6467,
      "unging": 6468,
      "tered": 6469,
      "bevor": 6470,
      "bound": 6471,
      "space": 6472,
      "ampen": 6473,
      "shades": 6474,
      "dough": 6475,
      "lounging": 6476,
      "neue": 6477,
      "Stangen": 6478,
      "Schirmen": 6479,
      "Schildern": 6480,
      "verz": 6481,
      "verlässt": 6482,
      "ador": 6483,
      "tee": 6484,
      "indian": 6485,
      "forward": 6486,
      "ugling": 6487,
      "power": 6488,
      "frü": 6489,
      "überprüft": 6490,
      "übergewicht": 6491,
      "groups": 6492,
      "intere": 6493,
      "zeits": 6494,
      "carry": 6495,
      "keep": 6496,
      "more": 6497,
      "bak": 6498,
      "oranges": 6499,
      "Food": 6500,
      "farbenes": 6501,
      "langärmel": 6502,
      "Bogen": 6503,
      "Spiels": 6504,
      "congre": 6505,
      "smaller": 6506,
      "asken": 6507,
      "mechan": 6508,
      "college": 6509,
      "column": 6510,
      "crosses": 6511,
      "Derby": 6512,
      "comm": 6513,
      "werfer": 6514,
      "pfl": 6515,
      "barber": 6516,
      "barrow": 6517,
      "Büschen": 6518,
      "Straßenmusik": 6519,
      "schieben": 6520,
      "Motorräder": 6521,
      "Sandwich": 6522,
      "Tribü": 6523,
      "izin": 6524,
      "Stufe": 6525,
      "ustik": 6526,
      "Händler": 6527,
      "festhält": 6528,
      "photos": 6529,
      "Baumes": 6530,
      "putzen": 6531,
      "Boots": 6532,
      "Waldweg": 6533,
      "Basketballspiel": 6534,
      "caps": 6535,
      "rainbow": 6536,
      "folgen": 6537,
      "note": 6538,
      "vely": 6539,
      "Blumenmuster": 6540,
      "Mittage": 6541,
      "gleichen": 6542,
      "shaved": 6543,
      "Flur": 6544,
      "Decken": 6545,
      "Sportkleidung": 6546,
      "Maulkorb": 6547,
      "vielleicht": 6548,
      "schlaf": 6549,
      "starting": 6550,
      "starren": 6551,
      "Afrikan": 6552,
      "called": 6553,
      "paddle": 6554,
      "herunterge": 6555,
      "bedru": 6556,
      "orangefarbene": 6557,
      "burger": 6558,
      "Hawai": 6559,
      "scheinbar": 6560,
      "Saiten": 6561,
      "trailer": 6562,
      "plates": 6563,
      "camp": 6564,
      "Teenageralter": 6565,
      "ausgestreckt": 6566,
      "ausgebreitet": 6567,
      "borne": 6568,
      "flowered": 6569,
      "näht": 6570,
      "Hochzeits": 6571,
      "shovels": 6572,
      "städtische": 6573,
      "bemalung": 6574,
      "engaged": 6575,
      "Akustik": 6576,
      "wrestle": 6577,
      "Kran": 6578,
      "Ziegelmauer": 6579,
      "bietet": 6580,
      "assist": 6581,
      "Poster": 6582,
      "raising": 6583,
      "Kapuze": 6584,
      "Klassenraum": 6585,
      "amongst": 6586,
      "catcher": 6587,
      "Bull": 6588,
      "feier": 6589,
      "feiert": 6590,
      "observing": 6591,
      "fireman": 6592,
      "joggen": 6593,
      "Halsk": 6594,
      "hüpfen": 6595,
      "While": 6596,
      "advertising": 6597,
      "eingezäunten": 6598,
      "Tennisspielerin": 6599,
      "participate": 6600,
      "Taxi": 6601,
      "Säugling": 6602,
      "ruhigen": 6603,
      "directions": 6604,
      "kreuz": 6605,
      "follows": 6606,
      "weather": 6607,
      "Videospiel": 6608,
      "Welpen": 6609,
      "nieder": 6610,
      "television": 6611,
      "castle": 6612,
      "Eishockeyspieler": 6613,
      "förmigen": 6614,
      "griff": 6615,
      "Podium": 6616,
      "village": 6617,
      "branch": 6618,
      "quarium": 6619,
      "Fußgängerüberweg": 6620,
      "beneath": 6621,
      "Afroamerikaner": 6622,
      "Silhouette": 6623,
      "Vögel": 6624,
      "teammate": 6625,
      "Violine": 6626,
      "liquid": 6627,
      "bespritzt": 6628,
      "necklace": 6629,
      "ribbon": 6630,
      "elephant": 6631,
      "Floß": 6632,
      "jewelry": 6633,
      "bewundert": 6634,
      "Crowd": 6635,
      "brauen": 6636,
      "spoon": 6637,
      "diskutieren": 6638,
      "Messer": 6639,
      "faulen": 6640,
      "asailing": 6641,
      "security": 6642,
      "Elefanten": 6643,
      "Dudelsack": 6644,
      "Schubkarre": 6645,
      "stomach": 6646,
      "binocul": 6647,
      "religi": 6648,
      "Mittagessen": 6649,
      "00": 6650,
      "11": 6651,
      "Aut": 6652,
      "Amp": 6653,
      "Beach": 6654,
      "Cau": 6655,
      "Di": 6656,
      "Dun": 6657,
      "Fit": 6658,
      "Fack": 6659,
      "Jen": 6660,
      "Kit": 6661,
      "Klas": 6662,
      "Köpfen": 6663,
      "Kameras": 6664,
      "Lot": 6665,
      "Mor": 6666,
      "Maschen": 6667,
      "Net": 6668,
      "Pa": 6669,
      "Prä": 6670,
      "Punk": 6671,
      "Sack": 6672,
      "Szene": 6673,
      "Ter": 6674,
      "Top": 6675,
      "Tom": 6676,
      "Table": 6677,
      "Trink": 6678,
      "Wach": 6679,
      "Zöpfen": 6680,
      "aisle": 6681,
      "bä": 6682,
      "butter": 6683,
      "cree": 6684,
      "cigar": 6685,
      "ees": 6686,
      "flie": 6687,
      "flips": 6688,
      "fisherman": 6689,
      "gal": 6690,
      "gung": 6691,
      "harmon": 6692,
      "izen": 6693,
      "job": 6694,
      "kap": 6695,
      "my": 6696,
      "mes": 6697,
      "mop": 6698,
      "mini": 6699,
      "maler": 6700,
      "nature": 6701,
      "plo": 6702,
      "rat": 6703,
      "sne": 6704,
      "sow": 6705,
      "satz": 6706,
      "sschild": 6707,
      "teln": 6708,
      "völ": 6709,
      "wig": 6710,
      "wink": 6711,
      "wür": 6712,
      "üten": 6713,
      "üff": 6714,
      "einwand": 6715,
      "itä": 6716,
      "itte": 6717,
      "itors": 6718,
      "unte": 6719,
      "oned": 6720,
      "still": 6721,
      "Einem": 6722,
      "leads": 6723,
      "res": 6724,
      "rechte": 6725,
      "ato": 6726,
      "ately": 6727,
      "eile": 6728,
      "wohl": 6729,
      "irme": 6730,
      "schar": 6731,
      "schreiben": 6732,
      "races": 6733,
      "dec": 6734,
      "decke": 6735,
      "terrain": 6736,
      "blio": 6737,
      "beutel": 6738,
      "ims": 6739,
      "imate": 6740,
      "boten": 6741,
      "share": 6742,
      "shining": 6743,
      "shakes": 6744,
      "whilst": 6745,
      "upon": 6746,
      "loser": 6747,
      "webt": 6748,
      "Str": 6749,
      "Stä": 6750,
      "Strei": 6751,
      "Streifen": 6752,
      "steel": 6753,
      "School": 6754,
      "Schmuck": 6755,
      "zuge": 6756,
      "zubereitet": 6757,
      "verkehr": 6758,
      "verdeckt": 6759,
      "ballerina": 6760,
      "adm": 6761,
      "admir": 6762,
      "wns": 6763,
      "ott": 6764,
      "herr": 6765,
      "redheaded": 6766,
      "trie": 6767,
      "trunk": 6768,
      "bystand": 6769,
      "holen": 6770,
      "ika": 6771,
      "iku": 6772,
      "airborne": 6773,
      "poor": 6774,
      "buck": 6775,
      "geländer": 6776,
      "wading": 6777,
      "downtown": 6778,
      "interacting": 6779,
      "world": 6780,
      "ruhen": 6781,
      "hakis": 6782,
      "feather": 6783,
      "blei": 6784,
      "bleach": 6785,
      "odle": 6786,
      "fführung": 6787,
      "Aufführung": 6788,
      "Boo": 6789,
      "teilweise": 6790,
      "phy": 6791,
      "entlanggeht": 6792,
      "gehende": 6793,
      "lush": 6794,
      "fake": 6795,
      "factory": 6796,
      "Fahrrads": 6797,
      "iertes": 6798,
      "quick": 6799,
      "hindurch": 6800,
      "angem": 6801,
      "Rekla": 6802,
      "science": 6803,
      "gestiku": 6804,
      "vorbeigeht": 6805,
      "brechen": 6806,
      "prob": 6807,
      "ört": 6808,
      "Bühnen": 6809,
      "zeige": 6810,
      "rosafarbener": 6811,
      "rosafarbene": 6812,
      "Web": 6813,
      "trikot": 6814,
      "tricycle": 6815,
      "izing": 6816,
      "Students": 6817,
      "shops": 6818,
      "Holzt": 6819,
      "Muster": 6820,
      "Museum": 6821,
      "Beleucht": 6822,
      "tty": 6823,
      "kesen": 6824,
      "Radrennen": 6825,
      "polit": 6826,
      "Bandana": 6827,
      "straight": 6828,
      "karte": 6829,
      "passenden": 6830,
      "knien": 6831,
      "haarigen": 6832,
      "Kunstwer": 6833,
      "Kunststoff": 6834,
      "wäsche": 6835,
      "newborn": 6836,
      "landet": 6837,
      "press": 6838,
      "eled": 6839,
      "silly": 6840,
      "gemacht": 6841,
      "machines": 6842,
      "Moment": 6843,
      "schlamm": 6844,
      "wheelbarrow": 6845,
      "drinnen": 6846,
      "Soon": 6847,
      "Soccer": 6848,
      "Seilen": 6849,
      "zeitig": 6850,
      "employ": 6851,
      "Marktplatz": 6852,
      "Coca": 6853,
      "legten": 6854,
      "Aussicht": 6855,
      "scarves": 6856,
      "Cowboys": 6857,
      "Locken": 6858,
      "Play": 6859,
      "aussehenden": 6860,
      "camel": 6861,
      "höri": 6862,
      "glove": 6863,
      "dienen": 6864,
      "greifen": 6865,
      "scream": 6866,
      "engine": 6867,
      "Reifenschaukel": 6868,
      "pottery": 6869,
      "sentation": 6870,
      "Asiatinnen": 6871,
      "Pfadfinder": 6872,
      "gleichzeitig": 6873,
      "splashes": 6874,
      "closeup": 6875,
      "Knie": 6876,
      "Snowboardfahrer": 6877,
      "ific": 6878,
      "Break": 6879,
      "cards": 6880,
      "Rande": 6881,
      "photographed": 6882,
      "rothaariges": 6883,
      "chefs": 6884,
      "guns": 6885,
      "khakifarbenen": 6886,
      "rieben": 6887,
      "protesting": 6888,
      "verkleidete": 6889,
      "Fernglas": 6890,
      "reflekt": 6891,
      "casual": 6892,
      "präsent": 6893,
      "Stehen": 6894,
      "repairs": 6895,
      "Blättern": 6896,
      "bewegen": 6897,
      "Banner": 6898,
      "lockigen": 6899,
      "fertig": 6900,
      "Innenstadt": 6901,
      "filmt": 6902,
      "tourists": 6903,
      "Stirnband": 6904,
      "weaving": 6905,
      "sprinkler": 6906,
      "ländlichen": 6907,
      "College": 6908,
      "einsamer": 6909,
      "jubelt": 6910,
      "niedri": 6911,
      "Grimassen": 6912,
      "Euro": 6913,
      "synchron": 6914,
      "donkey": 6915,
      "Schmutz": 6916,
      "Bällen": 6917,
      "Walmart": 6918,
      "beginnt": 6919,
      "Köche": 6920,
      "ussell": 6921,
      "charac": 6922,
      "Gewändern": 6923,
      "Mitglieder": 6924,
      "receiving": 6925,
      "biking": 6926,
      "Linie": 6927,
      "peering": 6928,
      "passenger": 6929,
      "klatscht": 6930,
      "Häusern": 6931,
      "enthusi": 6932,
      "Times": 6933,
      "billboard": 6934,
      "trucks": 6935,
      "geborenes": 6936,
      "Biblio": 6937,
      "Club": 6938,
      "Stofft": 6939,
      "cobblestone": 6940,
      "Rettungswesten": 6941,
      "glatzköpfiger": 6942,
      "nächsten": 6943,
      "Kürbis": 6944,
      "Löffel": 6945,
      "ämmerung": 6946,
      "Achterbahn": 6947,
      "Halloween": 6948,
      "Irokesen": 6949,
      "slightly": 6950,
      "Akustikgitarre": 6951,
      "binoculars": 6952,
      "Jenga": 6953,
      "Maschendraht": 6954,
      "admiring": 6955,
      "Beleuchtung": 6956,
      "Bibliothek": 6957,
      "Bra": 6958,
      "Bass": 6959,
      "Del": 6960,
      "Fänger": 6961,
      "Fabri": 6962,
      "Gi": 6963,
      "Go": 6964,
      "Is": 6965,
      "It": 6966,
      "Later": 6967,
      "Lok": 6968,
      "Mi": 6969,
      "Mützen": 6970,
      "No": 6971,
      "Py": 6972,
      "Por": 6973,
      "Pop": 6974,
      "Puppe": 6975,
      "Ri": 6976,
      "Tal": 6977,
      "Turban": 6978,
      "Ur": 6979,
      "War": 6980,
      "Wol": 6981,
      "Wange": 6982,
      "Zigar": 6983,
      "ax": 6984,
      "ager": 6985,
      "abends": 6986,
      "bell": 6987,
      "bunden": 6988,
      "bilden": 6989,
      "cans": 6990,
      "dad": 6991,
      "ditor": 6992,
      "doll": 6993,
      "fetti": 6994,
      "hart": 6995,
      "mis": 6996,
      "nam": 6997,
      "oven": 6998,
      "pir": 6999,
      "pfer": 7000,
      "pping": 7001,
      "pigt": 7002,
      "pizza": 7003,
      "säu": 7004,
      "sque": 7005,
      "szene": 7006,
      "tun": 7007,
      "trol": 7008,
      "treppe": 7009,
      "ustri": 7010,
      "ually": 7011,
      "vin": 7012,
      "xof": 7013,
      "Älter": 7014,
      "incl": 7015,
      "anas": 7016,
      "chw": 7017,
      "ität": 7018,
      "onge": 7019,
      "onder": 7020,
      "stuch": 7021,
      "Einkäufer": 7022,
      "lear": 7023,
      "lecture": 7024,
      "leotard": 7025,
      "undy": 7026,
      "gefüllten": 7027,
      "oranger": 7028,
      "aufmerksam": 7029,
      "schul": 7030,
      "scheibe": 7031,
      "last": 7032,
      "rauchen": 7033,
      "debris": 7034,
      "been": 7035,
      "bege": 7036,
      "spü": 7037,
      "sprü": 7038,
      "shel": 7039,
      "tending": 7040,
      "menade": 7041,
      "loom": 7042,
      "urm": 7043,
      "urs": 7044,
      "Star": 7045,
      "genommen": 7046,
      "places": 7047,
      "berg": 7048,
      "Schach": 7049,
      "Schilder": 7050,
      "verlet": 7051,
      "ics": 7052,
      "vorbereitet": 7053,
      "indischer": 7054,
      "sseln": 7055,
      "ford": 7056,
      "blading": 7057,
      "coaster": 7058,
      "tape": 7059,
      "strecken": 7060,
      "ausgestellt": 7061,
      "appar": 7062,
      "istole": 7063,
      "Gehen": 7064,
      "lanze": 7065,
      "lantern": 7066,
      "Anhän": 7067,
      "crobat": 7068,
      "carts": 7069,
      "waterfront": 7070,
      "waterway": 7071,
      "checks": 7072,
      "lower": 7073,
      "keys": 7074,
      "Lego": 7075,
      "rubs": 7076,
      "stehender": 7077,
      "may": 7078,
      "bracht": 7079,
      "immed": 7080,
      "Kindes": 7081,
      "lernt": 7082,
      "Handschuh": 7083,
      "langhaarige": 7084,
      "diver": 7085,
      "ffet": 7086,
      "Bohr": 7087,
      "Boys": 7088,
      "overhead": 7089,
      "handle": 7090,
      "sailing": 7091,
      "gehender": 7092,
      "bricht": 7093,
      "social": 7094,
      "coll": 7095,
      "Bauarbeiten": 7096,
      "Asien": 7097,
      "comes": 7098,
      "gestures": 7099,
      "ational": 7100,
      "ündel": 7101,
      "barrier": 7102,
      "rocknet": 7103,
      "betre": 7104,
      "ktiv": 7105,
      "clas": 7106,
      "horiz": 7107,
      "ärm": 7108,
      "wings": 7109,
      "bedeckte": 7110,
      "Arbeits": 7111,
      "ettes": 7112,
      "lichem": 7113,
      "lichkeit": 7114,
      "Feder": 7115,
      "Univers": 7116,
      "Bewegung": 7117,
      "kurs": 7118,
      "ucker": 7119,
      "Radfahrern": 7120,
      "swimmers": 7121,
      "marine": 7122,
      "flute": 7123,
      "Police": 7124,
      "dieser": 7125,
      "dges": 7126,
      "Vortrag": 7127,
      "laptops": 7128,
      "Flöte": 7129,
      "Badezimmer": 7130,
      "dusk": 7131,
      "landing": 7132,
      "pretty": 7133,
      "Neu": 7134,
      "kante": 7135,
      "Karte": 7136,
      "Wake": 7137,
      "praying": 7138,
      "America": 7139,
      "beladen": 7140,
      "ronen": 7141,
      "grillen": 7142,
      "wandt": 7143,
      "converse": 7144,
      "venue": 7145,
      "Schlagmann": 7146,
      "Werfer": 7147,
      "Saxof": 7148,
      "mitteln": 7149,
      "official": 7150,
      "Papiere": 7151,
      "cups": 7152,
      "Computerbildschirm": 7153,
      "trop": 7154,
      "tropical": 7155,
      "paddles": 7156,
      "entering": 7157,
      "gestreiftes": 7158,
      "streicht": 7159,
      "lifted": 7160,
      "monument": 7161,
      "gebäudes": 7162,
      "bbing": 7163,
      "Stühle": 7164,
      "portra": 7165,
      "kräft": 7166,
      "Tourist": 7167,
      "craw": 7168,
      "observes": 7169,
      "unbefestigte": 7170,
      "prüfen": 7171,
      "examines": 7172,
      "Halstuch": 7173,
      "tires": 7174,
      "Werkstatt": 7175,
      "chainsaw": 7176,
      "burgundy": 7177,
      "Trainer": 7178,
      "customer": 7179,
      "groceries": 7180,
      "Elekt": 7181,
      "erwachsener": 7182,
      "spotted": 7183,
      "teaching": 7184,
      "guards": 7185,
      "geparkten": 7186,
      "Labork": 7187,
      "Luftballon": 7188,
      "Liefer": 7189,
      "Quar": 7190,
      "Quad": 7191,
      "cular": 7192,
      "messy": 7193,
      "sniff": 7194,
      "Gesichtsbemalung": 7195,
      "telephone": 7196,
      "Europe": 7197,
      "hobenen": 7198,
      "haube": 7199,
      "filling": 7200,
      "atetes": 7201,
      "meeting": 7202,
      "eggs": 7203,
      "größ": 7204,
      "firefighters": 7205,
      "thumbs": 7206,
      "Kettensäge": 7207,
      "Mülltonne": 7208,
      "Ozean": 7209,
      "Versammlung": 7210,
      "Subway": 7211,
      "motion": 7212,
      "attention": 7213,
      "Pferdeschw": 7214,
      "browsing": 7215,
      "ceremony": 7216,
      "studying": 7217,
      "Inlineskates": 7218,
      "Strickmütze": 7219,
      "verheiratetes": 7220,
      "consisting": 7221,
      "Plastiktüte": 7222,
      "Feuerwehrleute": 7223,
      "Multiple": 7224,
      "Gymnastik": 7225,
      "Tribüne": 7226,
      "Caucasian": 7227,
      "Klasse": 7228,
      "sneakers": 7229,
      "sowie": 7230,
      "bleachers": 7231,
      "gestikuliert": 7232,
      "Fabrik": 7233,
      "ditorium": 7234,
      "Saxofon": 7235,
      "Asp": 7236,
      "Apfel": 7237,
      "Bam": 7238,
      "Bill": 7239,
      "Bälle": 7240,
      "Cro": 7241,
      "Cello": 7242,
      "Durch": 7243,
      "Eim": 7244,
      "Flan": 7245,
      "Fema": 7246,
      "Flies": 7247,
      "Glat": 7248,
      "Hor": 7249,
      "Haltung": 7250,
      "Ken": 7251,
      "Kell": 7252,
      "Kette": 7253,
      "Köpfe": 7254,
      "Mün": 7255,
      "Maler": 7256,
      "Mittel": 7257,
      "NY": 7258,
      "Pon": 7259,
      "Pre": 7260,
      "Pink": 7261,
      "Pizza": 7262,
      "Rik": 7263,
      "Sicht": 7264,
      "Snack": 7265,
      "Tru": 7266,
      "Töp": 7267,
      "Uhr": 7268,
      "Ve": 7269,
      "Vide": 7270,
      "Während": 7271,
      "ader": 7272,
      "aqu": 7273,
      "acrobat": 7274,
      "bam": 7275,
      "bite": 7276,
      "biting": 7277,
      "cil": 7278,
      "call": 7279,
      "cakes": 7280,
      "cello": 7281,
      "dir": 7282,
      "eis": 7283,
      "flan": 7284,
      "fischen": 7285,
      "give": 7286,
      "glän": 7287,
      "games": 7288,
      "iPod": 7289,
      "jet": 7290,
      "kin": 7291,
      "kas": 7292,
      "kuchen": 7293,
      "mü": 7294,
      "mischt": 7295,
      "ore": 7296,
      "our": 7297,
      "passt": 7298,
      "tug": 7299,
      "ube": 7300,
      "vieren": 7301,
      "yon": 7302,
      "zy": 7303,
      "zwe": 7304,
      "äht": 7305,
      "inis": 7306,
      "aneinander": 7307,
      "chess": 7308,
      "itung": 7309,
      "ities": 7310,
      "aush": 7311,
      "aubs": 7312,
      "onnen": 7313,
      "stare": 7314,
      "strü": 7315,
      "stops": 7316,
      "regen": 7317,
      "recl": 7318,
      "andise": 7319,
      "elbe": 7320,
      "alds": 7321,
      "attered": 7322,
      "rost": 7323,
      "rohr": 7324,
      "gewin": 7325,
      "gelegen": 7326,
      "ora": 7327,
      "ordent": 7328,
      "eight": 7329,
      "manche": 7330,
      "ckigen": 7331,
      "aufgestellt": 7332,
      "schlauch": 7333,
      "schirme": 7334,
      "lacrosse": 7335,
      "ieden": 7336,
      "tomat": 7337,
      "tossing": 7338,
      "sides": 7339,
      "weil": 7340,
      "rauß": 7341,
      "rauri": 7342,
      "terned": 7343,
      "blur": 7344,
      "best": 7345,
      "begleitet": 7346,
      "behälter": 7347,
      "beisammen": 7348,
      "utt": 7349,
      "ami": 7350,
      "opes": 7351,
      "opter": 7352,
      "lob": 7353,
      "load": 7354,
      "riften": 7355,
      "State": 7356,
      "Stunt": 7357,
      "Staub": 7358,
      "umin": 7359,
      "ummel": 7360,
      "sele": 7361,
      "secon": 7362,
      "bend": 7363,
      "Schrift": 7364,
      "Schafe": 7365,
      "heading": 7366,
      "spielern": 7367,
      "spielzeug": 7368,
      "teal": 7369,
      "text": 7370,
      "shirted": 7371,
      "wares": 7372,
      "klaren": 7373,
      "heraush": 7374,
      "ildet": 7375,
      "covers": 7376,
      "watet": 7377,
      "schwarzhaarige": 7378,
      "renn": 7379,
      "Spie": 7380,
      "Ange": 7381,
      "Anweis": 7382,
      "interview": 7383,
      "angeboten": 7384,
      "angehöri": 7385,
      "ske": 7386,
      "skaters": 7387,
      "fenster": 7388,
      "watermel": 7389,
      "cheek": 7390,
      "umpire": 7391,
      "ctors": 7392,
      "backdrop": 7393,
      "movie": 7394,
      "Wassermel": 7395,
      "feuer": 7396,
      "äule": 7397,
      "brocken": 7398,
      "ansieht": 7399,
      "langärm": 7400,
      "digt": 7401,
      "Board": 7402,
      "Booten": 7403,
      "snowsuit": 7404,
      "overweight": 7405,
      "handing": 7406,
      "cons": 7407,
      "Seattle": 7408,
      "Hocker": 7409,
      "Arzt": 7410,
      "fahl": 7411,
      "ckenden": 7412,
      "agieren": 7413,
      "drängt": 7414,
      "Ballerina": 7415,
      "bricks": 7416,
      "soap": 7417,
      "wegungen": 7418,
      "Jackett": 7419,
      "bron": 7420,
      "brief": 7421,
      "Hinterb": 7422,
      "quo": 7423,
      "Gesichtern": 7424,
      "angle": 7425,
      "nisse": 7426,
      "spielerisch": 7427,
      "pfad": 7428,
      "pflanzen": 7429,
      "Inline": 7430,
      "performers": 7431,
      "suitcase": 7432,
      "Schneeanzug": 7433,
      "Tee": 7434,
      "Teen": 7435,
      "Sonnenschirm": 7436,
      "sandigen": 7437,
      "ichter": 7438,
      "ichten": 7439,
      "armor": 7440,
      "sweeps": 7441,
      "herumstehen": 7442,
      "Autobahn": 7443,
      "izieren": 7444,
      "Student": 7445,
      "bagpipes": 7446,
      "expre": 7447,
      "Vergnü": 7448,
      "schnitzt": 7449,
      "Schwimmweste": 7450,
      "ively": 7451,
      "essor": 7452,
      "Bear": 7453,
      "gestreifter": 7454,
      "Hüte": 7455,
      "Bandmitglie": 7456,
      "serves": 7457,
      "balken": 7458,
      "Aufnahme": 7459,
      "Bahngle": 7460,
      "knife": 7461,
      "Frisur": 7462,
      "gebaut": 7463,
      "gebildet": 7464,
      "blockt": 7465,
      "Pflaster": 7466,
      "öffnung": 7467,
      "sely": 7468,
      "boxer": 7469,
      "Badeanzügen": 7470,
      "Kleinkinder": 7471,
      "Schuss": 7472,
      "kasten": 7473,
      "paperwork": 7474,
      "Nebel": 7475,
      "applying": 7476,
      "wheelie": 7477,
      "banjo": 7478,
      "dunklem": 7479,
      "küche": 7480,
      "kümmert": 7481,
      "forehead": 7482,
      "amerikanischer": 7483,
      "mannschaften": 7484,
      "Schulkinder": 7485,
      "Geräten": 7486,
      "Engel": 7487,
      "Pudel": 7488,
      "rafting": 7489,
      "Sprungbrett": 7490,
      "Betonwand": 7491,
      "Biker": 7492,
      "traditionellen": 7493,
      "Schüsseln": 7494,
      "Computern": 7495,
      "knees": 7496,
      "tromm": 7497,
      "Feuerwehrauto": 7498,
      "patterned": 7499,
      "spannt": 7500,
      "hotel": 7501,
      "strange": 7502,
      "ements": 7503,
      "paddeln": 7504,
      "Fischern": 7505,
      "attending": 7506,
      "Freundin": 7507,
      "verschneite": 7508,
      "vendors": 7509,
      "yoga": 7510,
      "bemalten": 7511,
      "newspapers": 7512,
      "alleyway": 7513,
      "wrestler": 7514,
      "biss": 7515,
      "blankets": 7516,
      "visiting": 7517,
      "visible": 7518,
      "countryside": 7519,
      "Asiatische": 7520,
      "Kragen": 7521,
      "soll": 7522,
      "krat": 7523,
      "minton": 7524,
      "Knei": 7525,
      "Knöpfen": 7526,
      "scooters": 7527,
      "ständer": 7528,
      "Laptops": 7529,
      "kayaks": 7530,
      "firemen": 7531,
      "Tänzerin": 7532,
      "piercing": 7533,
      "tackle": 7534,
      "touches": 7535,
      "Treppenhaus": 7536,
      "Treppenstufen": 7537,
      "Waschbecken": 7538,
      "Draht": 7539,
      "aufgerei": 7540,
      "Golfball": 7541,
      "juice": 7542,
      "Banjo": 7543,
      "Mountainbiker": 7544,
      "story": 7545,
      "tourist": 7546,
      "rickshaw": 7547,
      "Trommeln": 7548,
      "Möbel": 7549,
      "complete": 7550,
      "Welpe": 7551,
      "afroamerikanische": 7552,
      "wires": 7553,
      "semi": 7554,
      "inspects": 7555,
      "flugzeug": 7556,
      "stößt": 7557,
      "beverages": 7558,
      "Türen": 7559,
      "geöffneten": 7560,
      "sauber": 7561,
      "Tarnkleidung": 7562,
      "schwebt": 7563,
      "pillows": 7564,
      "barfüßige": 7565,
      "target": 7566,
      "Produkte": 7567,
      "Tätowierung": 7568,
      "Tätowierungen": 7569,
      "emergency": 7570,
      "parachut": 7571,
      "McDonalds": 7572,
      "Spaziergang": 7573,
      "Stahl": 7574,
      "shadows": 7575,
      "elektr": 7576,
      "beanie": 7577,
      "exercise": 7578,
      "arrang": 7579,
      "Schleife": 7580,
      "exhibit": 7581,
      "Zahlreiche": 7582,
      "Junger": 7583,
      "clapping": 7584,
      "Trainingsanzug": 7585,
      "Apple": 7586,
      "merchandise": 7587,
      "Konferenz": 7588,
      "aufgeregt": 7589,
      "Heißluftballon": 7590,
      "Swimming": 7591,
      "Yoga": 7592,
      "gepunkteten": 7593,
      "boulder": 7594,
      "ontäne": 7595,
      "bräun": 7596,
      "gymnastics": 7597,
      "Paare": 7598,
      "Präsentation": 7599,
      "gungspark": 7600,
      "üffelt": 7601,
      "bystanders": 7602,
      "Kunstwerke": 7603,
      "Sooners": 7604,
      "Breakdance": 7605,
      "reflektieren": 7606,
      "Maschendrahtzaun": 7607,
      "Miami": 7608,
      "pigtails": 7609,
      "Lieferwagen": 7610,
      "Quarterback": 7611,
      "Fliesen": 7612,
      "Kellner": 7613,
      "bamboo": 7614,
      "glänzenden": 7615,
      "aubsau": 7616,
      "Vergnügungspark": 7617,
      "Air": 7618,
      "CE": 7619,
      "Des": 7620,
      "Dirt": 7621,
      "Dunk": 7622,
      "Fischen": 7623,
      "Flip": 7624,
      "Gläsern": 7625,
      "Hab": 7626,
      "Horn": 7627,
      "Kick": 7628,
      "Lat": 7629,
      "Lass": 7630,
      "Leinwand": 7631,
      "Maschinen": 7632,
      "Ofen": 7633,
      "Pir": 7634,
      "Sen": 7635,
      "Sessel": 7636,
      "TV": 7637,
      "Urein": 7638,
      "Vert": 7639,
      "Wette": 7640,
      "Woll": 7641,
      "Waffe": 7642,
      "Zyl": 7643,
      "Zucker": 7644,
      "aal": 7645,
      "bon": 7646,
      "bol": 7647,
      "bungen": 7648,
      "bändern": 7649,
      "cage": 7650,
      "diger": 7651,
      "fers": 7652,
      "fed": 7653,
      "ffe": 7654,
      "fischt": 7655,
      "gli": 7656,
      "hung": 7657,
      "hinder": 7658,
      "ib": 7659,
      "iers": 7660,
      "ky": 7661,
      "kett": 7662,
      "khakis": 7663,
      "mor": 7664,
      "mur": 7665,
      "mug": 7666,
      "namen": 7667,
      "pig": 7668,
      "pins": 7669,
      "passi": 7670,
      "rund": 7671,
      "range": 7672,
      "rungen": 7673,
      "rutschen": 7674,
      "treiben": 7675,
      "tiny": 7676,
      "trauri": 7677,
      "uble": 7678,
      "uster": 7679,
      "uquet": 7680,
      "wahr": 7681,
      "yarn": 7682,
      "zing": 7683,
      "zune": 7684,
      "ält": 7685,
      "übers": 7686,
      "erie": 7687,
      "einzu": 7688,
      "chip": 7689,
      "christ": 7690,
      "chatting": 7691,
      "unbe": 7692,
      "unus": 7693,
      "unordent": 7694,
      "arcade": 7695,
      "auditorium": 7696,
      "ston": 7697,
      "stir": 7698,
      "stab": 7699,
      "stance": 7700,
      "staub": 7701,
      "stanien": 7702,
      "Einsatz": 7703,
      "record": 7704,
      "retrie": 7705,
      "elte": 7706,
      "romat": 7707,
      "roffen": 7708,
      "gesen": 7709,
      "gesehen": 7710,
      "gefle": 7711,
      "maneu": 7712,
      "schne": 7713,
      "schrei": 7714,
      "schick": 7715,
      "schriften": 7716,
      "labor": 7717,
      "rag": 7718,
      "iefel": 7719,
      "besteht": 7720,
      "ersby": 7721,
      "shep": 7722,
      "dozer": 7723,
      "domin": 7724,
      "lose": 7725,
      "rice": 7726,
      "weap": 7727,
      "Stöcke": 7728,
      "Staubsau": 7729,
      "denk": 7730,
      "umped": 7731,
      "separ": 7732,
      "placing": 7733,
      "placed": 7734,
      "Schein": 7735,
      "Schlu": 7736,
      "Schmet": 7737,
      "vergnü": 7738,
      "assem": 7739,
      "playfully": 7740,
      "tea": 7741,
      "tex": 7742,
      "henden": 7743,
      "vorsprung": 7744,
      "indem": 7745,
      "fork": 7746,
      "coast": 7747,
      "igan": 7748,
      "hohe": 7749,
      "hoher": 7750,
      "iker": 7751,
      "posed": 7752,
      "pocket": 7753,
      "auszu": 7754,
      "ischem": 7755,
      "wake": 7756,
      "waff": 7757,
      "focu": 7758,
      "crossed": 7759,
      "gery": 7760,
      "sko": 7761,
      "äng": 7762,
      "tray": 7763,
      "Leucht": 7764,
      "formt": 7765,
      "main": 7766,
      "mock": 7767,
      "moder": 7768,
      "gress": 7769,
      "Wasserrutsche": 7770,
      "farmer": 7771,
      "bast": 7772,
      "braunhaariger": 7773,
      "larin": 7774,
      "larger": 7775,
      "ansammlung": 7776,
      "ließ": 7777,
      "ongo": 7778,
      "graph": 7779,
      "dives": 7780,
      "Auge": 7781,
      "Bob": 7782,
      "snowshoes": 7783,
      "teilnehmen": 7784,
      "handrail": 7785,
      "constru": 7786,
      "contest": 7787,
      "washer": 7788,
      "kleineren": 7789,
      "watched": 7790,
      "topf": 7791,
      "closely": 7792,
      "pinkfarbener": 7793,
      "antel": 7794,
      "dritte": 7795,
      "meas": 7796,
      "surgery": 7797,
      "Brit": 7798,
      "Bron": 7799,
      "gestür": 7800,
      "projekt": 7801,
      "process": 7802,
      "bicy": 7803,
      "Fußballdress": 7804,
      "ktem": 7805,
      "underwear": 7806,
      "ützt": 7807,
      "gathers": 7808,
      "attack": 7809,
      "Straßenverkäufer": 7810,
      "trip": 7811,
      "Jeep": 7812,
      "treat": 7813,
      "ärlich": 7814,
      "Erzeug": 7815,
      "lighted": 7816,
      "paralle": 7817,
      "parents": 7818,
      "ults": 7819,
      "Babys": 7820,
      "sunlight": 7821,
      "floats": 7822,
      "eingang": 7823,
      "Hänge": 7824,
      "Händchen": 7825,
      "Music": 7826,
      "Fecht": 7827,
      "motorized": 7828,
      "Beam": 7829,
      "Begle": 7830,
      "Baseballschläger": 7831,
      "Holzbank": 7832,
      "Helme": 7833,
      "Rohr": 7834,
      "netz": 7835,
      "serviert": 7836,
      "ballet": 7837,
      "knall": 7838,
      "motorcyclists": 7839,
      "Eiscreme": 7840,
      "Lacrosse": 7841,
      "opens": 7842,
      "highway": 7843,
      "diese": 7844,
      "dunkelten": 7845,
      "blocken": 7846,
      "planting": 7847,
      "ienten": 7848,
      "Herz": 7849,
      "accompan": 7850,
      "licherweise": 7851,
      "Freude": 7852,
      "elev": 7853,
      "draw": 7854,
      "drawn": 7855,
      "ymbol": 7856,
      "Obje": 7857,
      "Karussell": 7858,
      "rollerblading": 7859,
      "cowboys": 7860,
      "belong": 7861,
      "human": 7862,
      "Rennfahrer": 7863,
      "männlichen": 7864,
      "swimsuits": 7865,
      "Einkaufstü": 7866,
      "skiers": 7867,
      "Dock": 7868,
      "camping": 7869,
      "maske": 7870,
      "turquo": 7871,
      "picks": 7872,
      "Untergrund": 7873,
      "verteilt": 7874,
      "Kante": 7875,
      "werker": 7876,
      "Chef": 7877,
      "shoreline": 7878,
      "homeless": 7879,
      "Jugendlichen": 7880,
      "Farb": 7881,
      "Lebensmitteln": 7882,
      "Ballett": 7883,
      "Volleyballspieler": 7884,
      "Türöffnung": 7885,
      "medium": 7886,
      "lifts": 7887,
      "Obststand": 7888,
      "monitor": 7889,
      "practices": 7890,
      "Fußgängern": 7891,
      "potato": 7892,
      "multiple": 7893,
      "Rollschuh": 7894,
      "sprecher": 7895,
      "Kerle": 7896,
      "bietung": 7897,
      "rapids": 7898,
      "Vorderseite": 7899,
      "krie": 7900,
      "tux": 7901,
      "leuchtenden": 7902,
      "orientalische": 7903,
      "Turnschuhen": 7904,
      "Post": 7905,
      "Telefonz": 7906,
      "cycling": 7907,
      "slic": 7908,
      "füllen": 7909,
      "Armee": 7910,
      "abgeworfen": 7911,
      "mäher": 7912,
      "beleuchtet": 7913,
      "Marathonläufer": 7914,
      "silberfarbenen": 7915,
      "Kaffeet": 7916,
      "finished": 7917,
      "tackling": 7918,
      "Katzen": 7919,
      "Nagel": 7920,
      "reflection": 7921,
      "celebration": 7922,
      "Tiere": 7923,
      "printed": 7924,
      "Geländewagen": 7925,
      "hellhäutige": 7926,
      "logs": 7927,
      "repairing": 7928,
      "schütteln": 7929,
      "Säulen": 7930,
      "Teilnehmer": 7931,
      "jured": 7932,
      "laundromat": 7933,
      "ähnlichen": 7934,
      "suspenders": 7935,
      "Nachbar": 7936,
      "bekleidete": 7937,
      "bekleideter": 7938,
      "Krankenschwe": 7939,
      "Rahmen": 7940,
      "athletes": 7941,
      "Liegest": 7942,
      "afroamerikanischer": 7943,
      "gesprungen": 7944,
      "magazines": 7945,
      "haltung": 7946,
      "sammeln": 7947,
      "dusty": 7948,
      "Gegenständen": 7949,
      "Perlen": 7950,
      "Festival": 7951,
      "Brettspiel": 7952,
      "Redner": 7953,
      "Karton": 7954,
      "puppies": 7955,
      "tights": 7956,
      "traveling": 7957,
      "stürzt": 7958,
      "transportiert": 7959,
      "descent": 7960,
      "carefully": 7961,
      "unterschiedlichen": 7962,
      "Monopoly": 7963,
      "Namensschild": 7964,
      "adjusting": 7965,
      "firefighter": 7966,
      "involved": 7967,
      "parachute": 7968,
      "seltsamen": 7969,
      "McDonald": 7970,
      "Sporth": 7971,
      "geschlagen": 7972,
      "Früchte": 7973,
      "ponytail": 7974,
      "Zebra": 7975,
      "mower": 7976,
      "rosaro": 7977,
      "schüssel": 7978,
      "location": 7979,
      "Batman": 7980,
      "supplies": 7981,
      "rollerskating": 7982,
      "Green": 7983,
      "Gürtel": 7984,
      "Runners": 7985,
      "Plüscht": 7986,
      "japanischen": 7987,
      "Stammes": 7988,
      "Einkaufstasche": 7989,
      "möglicherweise": 7990,
      "flauschiger": 7991,
      "rückwärts": 7992,
      "Eisenbahn": 7993,
      "Dreirad": 7994,
      "Smoking": 7995,
      "ticket": 7996,
      "sperrung": 7997,
      "Wasserspren": 7998,
      "soda": 7999,
      "langärmeligen": 8000,
      "Beachvolleyball": 8001,
      "Netze": 8002,
      "Tablett": 8003,
      "creek": 8004,
      "Strumpf": 8005,
      "örtlichen": 8006,
      "Webstuhl": 8007,
      "screaming": 8008,
      "präsentiert": 8009,
      "Porträ": 8010,
      "trolley": 8011,
      "learning": 8012,
      "Anhänger": 8013,
      "Laborkittel": 8014,
      "Pferdeschwanz": 8015,
      "Asphalt": 8016,
      "Bambus": 8017,
      "Eimern": 8018,
      "Female": 8019,
      "Rikscha": 8020,
      "Töpfer": 8021,
      "tomato": 8022,
      "second": 8023,
      "Bearded": 8024,
      "aufgereiht": 8025,
      "Swimmingpool": 8026,
      "Ureinwohner": 8027,
      "Zylinder": 8028,
      "zunehmen": 8029,
      "christmas": 8030,
      "focused": 8031,
      "turquoise": 8032,
      "Acht": 8033,
      "Axt": 8034,
      "Bic": 8035,
      "Bildern": 8036,
      "Dr": 8037,
      "Dom": 8038,
      "Drink": 8039,
      "Dämmerung": 8040,
      "Em": 8041,
      "Eier": 8042,
      "Esst": 8043,
      "Gri": 8044,
      "Garn": 8045,
      "Hier": 8046,
      "Hör": 8047,
      "Hallen": 8048,
      "Kauf": 8049,
      "Kie": 8050,
      "Kol": 8051,
      "Karo": 8052,
      "Kasse": 8053,
      "Kittel": 8054,
      "Li": 8055,
      "Lim": 8056,
      "Lampe": 8057,
      "Lampen": 8058,
      "Mem": 8059,
      "Mus": 8060,
      "OP": 8061,
      "Ori": 8062,
      "Pin": 8063,
      "Plan": 8064,
      "Pok": 8065,
      "Puppen": 8066,
      "Ras": 8067,
      "Satt": 8068,
      "Säule": 8069,
      "Var": 8070,
      "Wart": 8071,
      "Welt": 8072,
      "aim": 8073,
      "bchen": 8074,
      "beln": 8075,
      "bindet": 8076,
      "cen": 8077,
      "cility": 8078,
      "done": 8079,
      "eastern": 8080,
      "fat": 8081,
      "fft": 8082,
      "floo": 8083,
      "fell": 8084,
      "flas": 8085,
      "finden": 8086,
      "fasst": 8087,
      "gla": 8088,
      "gten": 8089,
      "glä": 8090,
      "gitter": 8091,
      "hm": 8092,
      "hause": 8093,
      "iften": 8094,
      "klap": 8095,
      "lunder": 8096,
      "ms": 8097,
      "non": 8098,
      "nasser": 8099,
      "ox": 8100,
      "pas": 8101,
      "rug": 8102,
      "rally": 8103,
      "sar": 8104,
      "sla": 8105,
      "som": 8106,
      "snap": 8107,
      "ud": 8108,
      "va": 8109,
      "vas": 8110,
      "vide": 8111,
      "valley": 8112,
      "wi": 8113,
      "wischen": 8114,
      "wilden": 8115,
      "wissenschaft": 8116,
      "zin": 8117,
      "zün": 8118,
      "Übung": 8119,
      "äte": 8120,
      "inde": 8121,
      "inos": 8122,
      "install": 8123,
      "injured": 8124,
      "erhält": 8125,
      "anc": 8126,
      "einiger": 8127,
      "eingeschla": 8128,
      "chem": 8129,
      "chsen": 8130,
      "auten": 8131,
      "stat": 8132,
      "stell": 8133,
      "stilts": 8134,
      "lean": 8135,
      "lead": 8136,
      "leitet": 8137,
      "leggings": 8138,
      "than": 8139,
      "regn": 8140,
      "regner": 8141,
      "elzen": 8142,
      "isse": 8143,
      "atte": 8144,
      "robat": 8145,
      "gefolgt": 8146,
      "oring": 8147,
      "ckpit": 8148,
      "esa": 8149,
      "thed": 8150,
      "theke": 8151,
      "schung": 8152,
      "schiff": 8153,
      "lagen": 8154,
      "ragt": 8155,
      "racers": 8156,
      "raption": 8157,
      "illi": 8158,
      "deut": 8159,
      "department": 8160,
      "terling": 8161,
      "termin": 8162,
      "blu": 8163,
      "blind": 8164,
      "bewal": 8165,
      "becher": 8166,
      "boss": 8167,
      "bouquet": 8168,
      "spon": 8169,
      "spik": 8170,
      "spärlich": 8171,
      "whom": 8172,
      "upward": 8173,
      "loh": 8174,
      "loss": 8175,
      "urz": 8176,
      "risten": 8177,
      "Stöcken": 8178,
      "Stelzen": 8179,
      "seup": 8180,
      "Schaum": 8181,
      "verbunden": 8182,
      "played": 8183,
      "hear": 8184,
      "icy": 8185,
      "ically": 8186,
      "icopter": 8187,
      "lier": 8188,
      "gren": 8189,
      "klers": 8190,
      "ota": 8191,
      "ierung": 8192,
      "ssaal": 8193,
      "blazer": 8194,
      "sideways": 8195,
      "entlichkeit": 8196,
      "hore": 8197,
      "arkt": 8198,
      "pod": 8199,
      "ausstellung": 8200,
      "istert": 8201,
      "überd": 8202,
      "überall": 8203,
      "bucks": 8204,
      "ular": 8205,
      "Span": 8206,
      "Sprü": 8207,
      "Sponge": 8208,
      "unteren": 8209,
      "unterrichtet": 8210,
      "Menschenansammlung": 8211,
      "walked": 8212,
      "angebracht": 8213,
      "skater": 8214,
      "ringt": 8215,
      "ells": 8216,
      "cheese": 8217,
      "Leit": 8218,
      "Leggings": 8219,
      "rudern": 8220,
      "ctators": 8221,
      "single": 8222,
      "feat": 8223,
      "radu": 8224,
      "painter": 8225,
      "babies": 8226,
      "froren": 8227,
      "frozen": 8228,
      "brother": 8229,
      "träger": 8230,
      "Handschuhe": 8231,
      "artwork": 8232,
      "washes": 8233,
      "jacken": 8234,
      "saal": 8235,
      "sachen": 8236,
      "jeder": 8237,
      "jewei": 8238,
      "facility": 8239,
      "bäumen": 8240,
      "Pedestrians": 8241,
      "abgestellt": 8242,
      "abgebildet": 8243,
      "ague": 8244,
      "agul": 8245,
      "workout": 8246,
      "workshop": 8247,
      "quad": 8248,
      "quiet": 8249,
      "Strands": 8250,
      "Asia": 8251,
      "headdress": 8252,
      "Reis": 8253,
      "comp": 8254,
      "goat": 8255,
      "Kopfschmuck": 8256,
      "hochzu": 8257,
      "breit": 8258,
      "Inter": 8259,
      "steiger": 8260,
      "Fußballmannschaft": 8261,
      "joy": 8262,
      "blondhaarige": 8263,
      "ippe": 8264,
      "Gitarristen": 8265,
      "gaze": 8266,
      "roadside": 8267,
      "dunk": 8268,
      "aker": 8269,
      "canvas": 8270,
      "tribal": 8271,
      "trifft": 8272,
      "Motorhaube": 8273,
      "iziert": 8274,
      "couples": 8275,
      "nail": 8276,
      "laub": 8277,
      "lighting": 8278,
      "experiment": 8279,
      "schnellen": 8280,
      "festgebunden": 8281,
      "Frieden": 8282,
      "iosk": 8283,
      "lächelnden": 8284,
      "Unfall": 8285,
      "kurze": 8286,
      "Holzboden": 8287,
      "Holzzaun": 8288,
      "Rosa": 8289,
      "insel": 8290,
      "creating": 8291,
      "Bootes": 8292,
      "cable": 8293,
      "dribb": 8294,
      "serve": 8295,
      "shower": 8296,
      "Aufzug": 8297,
      "passersby": 8298,
      "autumn": 8299,
      "march": 8300,
      "lens": 8301,
      "Bergsteiger": 8302,
      "displaying": 8303,
      "displays": 8304,
      "blood": 8305,
      "Pfeil": 8306,
      "Pflanze": 8307,
      "iene": 8308,
      "Vorrichtung": 8309,
      "cute": 8310,
      "mmern": 8311,
      "urnament": 8312,
      "Herkunft": 8313,
      "shape": 8314,
      "news": 8315,
      "cooks": 8316,
      "garten": 8317,
      "surfs": 8318,
      "gemuster": 8319,
      "Schutzkleidung": 8320,
      "Schutzausrüstung": 8321,
      "Army": 8322,
      "Obama": 8323,
      "Obdach": 8324,
      "leiden": 8325,
      "Mohawk": 8326,
      "Toilet": 8327,
      "Kostüme": 8328,
      "empor": 8329,
      "Schnei": 8330,
      "rows": 8331,
      "belts": 8332,
      "pads": 8333,
      "Coup": 8334,
      "huddle": 8335,
      "Gericht": 8336,
      "Landstraße": 8337,
      "Ente": 8338,
      "männliches": 8339,
      "freien": 8340,
      "toddlers": 8341,
      "burning": 8342,
      "numbers": 8343,
      "Schaulust": 8344,
      "Richtungen": 8345,
      "konzert": 8346,
      "iously": 8347,
      "teens": 8348,
      "Sieg": 8349,
      "Unterwäsche": 8350,
      "Mülle": 8351,
      "Parcours": 8352,
      "hotdog": 8353,
      "militär": 8354,
      "strugg": 8355,
      "Jockeys": 8356,
      "hiding": 8357,
      "hike": 8358,
      "medizin": 8359,
      "streichen": 8360,
      "rooftop": 8361,
      "butcher": 8362,
      "staff": 8363,
      "pots": 8364,
      "Ziegelwand": 8365,
      "Ziegelsteinen": 8366,
      "Herrn": 8367,
      "earphones": 8368,
      "kurzem": 8369,
      "Partie": 8370,
      "schminkt": 8371,
      "Spectators": 8372,
      "fernung": 8373,
      "farbiger": 8374,
      "products": 8375,
      "Closeup": 8376,
      "atory": 8377,
      "kayaking": 8378,
      "clowns": 8379,
      "jüngerer": 8380,
      "gazes": 8381,
      "verwenden": 8382,
      "zeichnung": 8383,
      "bedecktes": 8384,
      "lampe": 8385,
      "decorative": 8386,
      "crouched": 8387,
      "Overalls": 8388,
      "afrikanischen": 8389,
      "Elderly": 8390,
      "candle": 8391,
      "cloud": 8392,
      "burgunder": 8393,
      "celebrate": 8394,
      "pillar": 8395,
      "casually": 8396,
      "contraption": 8397,
      "ebenfalls": 8398,
      "schaukeln": 8399,
      "alerie": 8400,
      "Felsvorsprung": 8401,
      "mixer": 8402,
      "trashcan": 8403,
      "Tracht": 8404,
      "wunderschöne": 8405,
      "Schlauchboot": 8406,
      "juggles": 8407,
      "torch": 8408,
      "fertigen": 8409,
      "ruhigem": 8410,
      "Rücksitz": 8411,
      "Rückseite": 8412,
      "storm": 8413,
      "stepping": 8414,
      "scaffold": 8415,
      "fliegenden": 8416,
      "Experiment": 8417,
      "sprayed": 8418,
      "Ziellinie": 8419,
      "oberen": 8420,
      "Gleich": 8421,
      "Gleisen": 8422,
      "furry": 8423,
      "Boxer": 8424,
      "seicht": 8425,
      "score": 8426,
      "finishing": 8427,
      "approaches": 8428,
      "meisten": 8429,
      "chalkboard": 8430,
      "amüsiert": 8431,
      "Erdhügel": 8432,
      "fashioned": 8433,
      "fröhlich": 8434,
      "branches": 8435,
      "quarterback": 8436,
      "Lagerfeuer": 8437,
      "transportation": 8438,
      "viertel": 8439,
      "vention": 8440,
      "issance": 8441,
      "erklimmen": 8442,
      "größer": 8443,
      "involving": 8444,
      "thumb": 8445,
      "kauert": 8446,
      "twirl": 8447,
      "driveway": 8448,
      "elektron": 8449,
      "hydr": 8450,
      "löschen": 8451,
      "chopping": 8452,
      "Freizeitpark": 8453,
      "activity": 8454,
      "bürste": 8455,
      "Körben": 8456,
      "Olympics": 8457,
      "Entfernung": 8458,
      "Shep": 8459,
      "gallery": 8460,
      "embracing": 8461,
      "stroke": 8462,
      "schlendert": 8463,
      "spritzen": 8464,
      "amidst": 8465,
      "fremden": 8466,
      "Schneeschuhen": 8467,
      "Öffentlichkeit": 8468,
      "ungewöhnlichen": 8469,
      "Ausstellung": 8470,
      "Klappstuhl": 8471,
      "Canad": 8472,
      "Pilot": 8473,
      "verzierten": 8474,
      "übergewichtiger": 8475,
      "interesting": 8476,
      "heruntergekommen": 8477,
      "Halskette": 8478,
      "Ampel": 8479,
      "Fitness": 8480,
      "Tomaten": 8481,
      "quickly": 8482,
      "Reklamet": 8483,
      "niedrigen": 8484,
      "Laternen": 8485,
      "incline": 8486,
      "begeistert": 8487,
      "collared": 8488,
      "classic": 8489,
      "horizon": 8490,
      "portrait": 8491,
      "kräfte": 8492,
      "größeren": 8493,
      "lobby": 8494,
      "kratzt": 8495,
      "Lasso": 8496,
      "Vertei": 8497,
      "namens": 8498,
      "unordentlichen": 8499,
      "staubigen": 8500,
      "schneit": 8501,
      "shepherd": 8502,
      "Staubsauger": 8503,
      "Schmetterling": 8504,
      "vergnügt": 8505,
      "British": 8506,
      "Erzeugnisse": 8507,
      "eingeschlafen": 8508,
      "regnerischen": 8509,
      "bewaldet": 8510,
      "Sprüh": 8511,
      "SpongeBob": 8512,
      "Mülleimer": 8513,
      "Ara": 8514,
      "Bas": 8515,
      "Bla": 8516,
      "Bark": 8517,
      "Block": 8518,
      "Body": 8519,
      "Cy": 8520,
      "Cal": 8521,
      "Dig": 8522,
      "Eight": 8523,
      "Eastern": 8524,
      "Fu": 8525,
      "Fan": 8526,
      "Fli": 8527,
      "Fische": 8528,
      "Grau": 8529,
      "Gabel": 8530,
      "Hy": 8531,
      "Hack": 8532,
      "Jet": 8533,
      "Kraft": 8534,
      "Kilt": 8535,
      "Lade": 8536,
      "Live": 8537,
      "Nu": 8538,
      "Native": 8539,
      "Nike": 8540,
      "Osten": 8541,
      "Pak": 8542,
      "Piz": 8543,
      "Pain": 8544,
      "Photo": 8545,
      "Plate": 8546,
      "Röh": 8547,
      "SU": 8548,
      "Sm": 8549,
      "Ser": 8550,
      "Stop": 8551,
      "Stern": 8552,
      "Smart": 8553,
      "Tr": 8554,
      "Vie": 8555,
      "Wi": 8556,
      "Wash": 8557,
      "Walk": 8558,
      "Zer": 8559,
      "Zus": 8560,
      "Zeich": 8561,
      "ay": 8562,
      "ado": 8563,
      "awn": 8564,
      "aquarium": 8565,
      "bzw": 8566,
      "binden": 8567,
      "cent": 8568,
      "centr": 8569,
      "cident": 8570,
      "dam": 8571,
      "eas": 8572,
      "every": 8573,
      "esta": 8574,
      "fal": 8575,
      "fas": 8576,
      "find": 8577,
      "flaschen": 8578,
      "gap": 8579,
      "gical": 8580,
      "gradu": 8581,
      "hip": 8582,
      "iche": 8583,
      "iage": 8584,
      "ixt": 8585,
      "jumped": 8586,
      "kart": 8587,
      "kilt": 8588,
      "mützen": 8589,
      "ose": 8590,
      "odie": 8591,
      "oted": 8592,
      "rank": 8593,
      "sü": 8594,
      "shr": 8595,
      "task": 8596,
      "used": 8597,
      "vine": 8598,
      "wan": 8599,
      "weinen": 8600,
      "wrist": 8601,
      "würde": 8602,
      "yons": 8603,
      "öser": 8604,
      "üge": 8605,
      "ination": 8606,
      "erhö": 8607,
      "erreichen": 8608,
      "erhobenen": 8609,
      "anen": 8610,
      "annen": 8611,
      "anhaben": 8612,
      "itzer": 8613,
      "uns": 8614,
      "unkt": 8615,
      "unhappy": 8616,
      "unique": 8617,
      "arri": 8618,
      "stump": 8619,
      "leas": 8620,
      "ret": 8621,
      "really": 8622,
      "aling": 8623,
      "almost": 8624,
      "ising": 8625,
      "geset": 8626,
      "gefahren": 8627,
      "geflo": 8628,
      "gefangen": 8629,
      "geister": 8630,
      "gespannt": 8631,
      "orch": 8632,
      "esen": 8633,
      "mitarbeiter": 8634,
      "irur": 8635,
      "schrau": 8636,
      "schmet": 8637,
      "schlei": 8638,
      "rachter": 8639,
      "tooth": 8640,
      "sig": 8641,
      "sidel": 8642,
      "olen": 8643,
      "unglück": 8644,
      "decken": 8645,
      "blase": 8646,
      "blich": 8647,
      "bestellen": 8648,
      "bedienen": 8649,
      "images": 8650,
      "amo": 8651,
      "shing": 8652,
      "shiel": 8653,
      "shiny": 8654,
      "tender": 8655,
      "tends": 8656,
      "menu": 8657,
      "rid": 8658,
      "rifle": 8659,
      "Stil": 8660,
      "Stativ": 8661,
      "denkt": 8662,
      "uma": 8663,
      "umringt": 8664,
      "seagul": 8665,
      "stecken": 8666,
      "beret": 8667,
      "berry": 8668,
      "Schle": 8669,
      "Schwer": 8670,
      "Schaf": 8671,
      "Schok": 8672,
      "verwir": 8673,
      "vergn": 8674,
      "assage": 8675,
      "omet": 8676,
      "liz": 8677,
      "lion": 8678,
      "warmen": 8679,
      "vorführt": 8680,
      "vorderen": 8681,
      "industri": 8682,
      "grind": 8683,
      "kly": 8684,
      "hervor": 8685,
      "sicher": 8686,
      "outing": 8687,
      "hoe": 8688,
      "hook": 8689,
      "hohem": 8690,
      "hohes": 8691,
      "holz": 8692,
      "lädt": 8693,
      "pow": 8694,
      "ausgest": 8695,
      "aprons": 8696,
      "frischen": 8697,
      "überprüfen": 8698,
      "bul": 8699,
      "buffet": 8700,
      "gelangen": 8701,
      "waist": 8702,
      "ulisse": 8703,
      "Spider": 8704,
      "footed": 8705,
      "ions": 8706,
      "interess": 8707,
      "angehalten": 8708,
      "chewing": 8709,
      "formeller": 8710,
      "backen": 8711,
      "Wasserp": 8712,
      "Wasserbecken": 8713,
      "Wasserfläche": 8714,
      "farbe": 8715,
      "pay": 8716,
      "pale": 8717,
      "jumper": 8718,
      "lernen": 8719,
      "brochen": 8720,
      "trägern": 8721,
      "fahrrad": 8722,
      "Fahrzeuge": 8723,
      "odles": 8724,
      "grabs": 8725,
      "grabbing": 8726,
      "dive": 8727,
      "divers": 8728,
      "dahinter": 8729,
      "Oberfläche": 8730,
      "handed": 8731,
      "concentr": 8732,
      "Shop": 8733,
      "say": 8734,
      "sawing": 8735,
      "built": 8736,
      "Hoodie": 8737,
      "struktur": 8738,
      "Felsk": 8739,
      "Sky": 8740,
      "Skil": 8741,
      "illumin": 8742,
      "aband": 8743,
      "dritter": 8744,
      "helicopter": 8745,
      "mex": 8746,
      "brass": 8747,
      "colate": 8748,
      "collie": 8749,
      "guide": 8750,
      "Repar": 8751,
      "scient": 8752,
      "scouts": 8753,
      "iesch": 8754,
      "gesturing": 8755,
      "metall": 8756,
      "Inder": 8757,
      "cherry": 8758,
      "steile": 8759,
      "Fußballtrikot": 8760,
      "Text": 8761,
      "decker": 8762,
      "mpfen": 8763,
      "besucht": 8764,
      "stoop": 8765,
      "gabe": 8766,
      "gaben": 8767,
      "ishment": 8768,
      "fahrenden": 8769,
      "akust": 8770,
      "Straßenarbeiter": 8771,
      "Straßenseite": 8772,
      "ichte": 8773,
      "tripod": 8774,
      "army": 8775,
      "getroffen": 8776,
      "spec": 8777,
      "special": 8778,
      "geschoben": 8779,
      "pencil": 8780,
      "parasailing": 8781,
      "Studio": 8782,
      "heller": 8783,
      "Skateboards": 8784,
      "explo": 8785,
      "wieder": 8786,
      "Schwimmflü": 8787,
      "Begeister": 8788,
      "darin": 8789,
      "daran": 8790,
      "Holzkonstruktion": 8791,
      "Hüpf": 8792,
      "putzer": 8793,
      "Geschwind": 8794,
      "Bildes": 8795,
      "Tennisplatz": 8796,
      "strapped": 8797,
      "service": 8798,
      "Musikgruppe": 8799,
      "known": 8800,
      "fishes": 8801,
      "Eiswagen": 8802,
      "hills": 8803,
      "ementary": 8804,
      "Laster": 8805,
      "highchair": 8806,
      "raining": 8807,
      "raincoat": 8808,
      "foliage": 8809,
      "Pullunder": 8810,
      "noon": 8811,
      "diesen": 8812,
      "Fenstern": 8813,
      "Feuerwerk": 8814,
      "hüllt": 8815,
      "cellphones": 8816,
      "sonnen": 8817,
      "Regenbogen": 8818,
      "Regenmantel": 8819,
      "azz": 8820,
      "ducks": 8821,
      "kastanien": 8822,
      "pathway": 8823,
      "Zeitschriften": 8824,
      "dragging": 8825,
      "kohol": 8826,
      "Flusses": 8827,
      "Flussufer": 8828,
      "Steintreppe": 8829,
      "liegende": 8830,
      "Rennens": 8831,
      "rollerblades": 8832,
      "wheeler": 8833,
      "Betrachter": 8834,
      "deli": 8835,
      "Familien": 8836,
      "Zauns": 8837,
      "schneebedeckte": 8838,
      "schneebedecktes": 8839,
      "Großer": 8840,
      "bedroom": 8841,
      "End": 8842,
      "orangefarbenes": 8843,
      "afternoon": 8844,
      "bbles": 8845,
      "spaziert": 8846,
      "Konstruktion": 8847,
      "Logo": 8848,
      "scheinlich": 8849,
      "aussehendes": 8850,
      "kämpft": 8851,
      "ausgezogen": 8852,
      "Volks": 8853,
      "Rasenfläche": 8854,
      "border": 8855,
      "turban": 8856,
      "crates": 8857,
      "pattern": 8858,
      "nächt": 8859,
      "scenic": 8860,
      "Mais": 8861,
      "Make": 8862,
      "dinos": 8863,
      "Absperr": 8864,
      "fält": 8865,
      "Hockeyspiel": 8866,
      "medit": 8867,
      "schützen": 8868,
      "schützt": 8869,
      "breakdancing": 8870,
      "Schürzen": 8871,
      "monkey": 8872,
      "Busses": 8873,
      "visor": 8874,
      "Concert": 8875,
      "types": 8876,
      "displayed": 8877,
      "Speer": 8878,
      "Speise": 8879,
      "Speedo": 8880,
      "weiteren": 8881,
      "brushes": 8882,
      "Tanzfläche": 8883,
      "orientalisch": 8884,
      "schwingen": 8885,
      "operates": 8886,
      "Kampfsportler": 8887,
      "circular": 8888,
      "mäht": 8889,
      "gazing": 8890,
      "jogs": 8891,
      "decorations": 8892,
      "ärmello": 8893,
      "protestiert": 8894,
      "begins": 8895,
      "waterski": 8896,
      "Laufbahn": 8897,
      "clouds": 8898,
      "pilot": 8899,
      "Clowns": 8900,
      "containing": 8901,
      "Geländefahrzeug": 8902,
      "Felsbrocken": 8903,
      "Flugzeugs": 8904,
      "Training": 8905,
      "heavily": 8906,
      "angezogener": 8907,
      "chocolate": 8908,
      "booths": 8909,
      "wärmen": 8910,
      "cleaner": 8911,
      "Bruder": 8912,
      "ähnlich": 8913,
      "Nachrichten": 8914,
      "fighters": 8915,
      "stacked": 8916,
      "checkers": 8917,
      "ATM": 8918,
      "pinata": 8919,
      "trench": 8920,
      "bathtub": 8921,
      "Day": 8922,
      "caucasian": 8923,
      "Außenbereich": 8924,
      "Flügeln": 8925,
      "Kapuzenpullover": 8926,
      "Badem": 8927,
      "strolls": 8928,
      "entfernen": 8929,
      "Sicherheitsweste": 8930,
      "Forscher": 8931,
      "Tüten": 8932,
      "tiled": 8933,
      "Hamburger": 8934,
      "Kartons": 8935,
      "system": 8936,
      "seichten": 8937,
      "Essensstand": 8938,
      "Rugbyspieler": 8939,
      "those": 8940,
      "attraktive": 8941,
      "hübschen": 8942,
      "hübsche": 8943,
      "Notiz": 8944,
      "sparring": 8945,
      "Patienten": 8946,
      "Mitglied": 8947,
      "geschnittenen": 8948,
      "schlecht": 8949,
      "adjusts": 8950,
      "Wildwasser": 8951,
      "sorting": 8952,
      "tätowierte": 8953,
      "vices": 8954,
      "bouncing": 8955,
      "Figuren": 8956,
      "Camping": 8957,
      "Segelboot": 8958,
      "gestellten": 8959,
      "Profi": 8960,
      "dumpster": 8961,
      "chopsticks": 8962,
      "located": 8963,
      "tagsüber": 8964,
      "Stromschnellen": 8965,
      "chinese": 8966,
      "imonos": 8967,
      "muzzle": 8968,
      "Passagiere": 8969,
      "designs": 8970,
      "presenting": 8971,
      "Blasen": 8972,
      "pumpkin": 8973,
      "Schachtel": 8974,
      "Bauernmarkt": 8975,
      "Darbietung": 8976,
      "Disney": 8977,
      "Platte": 8978,
      "Transport": 8979,
      "writes": 8980,
      "peeking": 8981,
      "ontrolle": 8982,
      "Blech": 8983,
      "befahrenen": 8984,
      "Musikinstrumente": 8985,
      "Fernseher": 8986,
      "Adults": 8987,
      "erleuchteten": 8988,
      "stolz": 8989,
      "recording": 8990,
      "pflops": 8991,
      "Straßenmusiker": 8992,
      "bedruckten": 8993,
      "Dunkel": 8994,
      "Fackel": 8995,
      "Lots": 8996,
      "Morgen": 8997,
      "butterfly": 8998,
      "völlig": 8999,
      "schlammigen": 9000,
      "Irokesenschnitt": 9001,
      "Lokal": 9002,
      "Wolken": 9003,
      "squee": 9004,
      "sprüht": 9005,
      "betreten": 9006,
      "University": 9007,
      "Neugeborenes": 9008,
      "sniffing": 9009,
      "Münz": 9010,
      "Videok": 9011,
      "heraushängen": 9012,
      "rennfahrer": 9013,
      "Spiegelb": 9014,
      "Hinterbeinen": 9015,
      "Fischernetz": 9016,
      "Kneipe": 9017,
      "elektrischen": 9018,
      "morning": 9019,
      "passiert": 9020,
      "Scheinwerfer": 9021,
      "bicycling": 9022,
      "parallel": 9023,
      "belongings": 9024,
      "Einkaufstüten": 9025,
      "Nachbarschaft": 9026,
      "Plüschtier": 9027,
      "Karohemd": 9028,
      "Muslim": 9029,
      "überdachten": 9030,
      "featuring": 9031,
      "jeweils": 9032,
      "Friedens": 9033,
      "dribbelt": 9034,
      "Couple": 9035,
      "Canadian": 9036,
      "heruntergekommenen": 9037,
      "Reklametafel": 9038,
      "bewaldeten": 9039,
      "Flipflops": 9040,
      "Röhre": 9041,
      "Smiling": 9042,
      "Zusammen": 9043,
      "establ": 9044,
      "Schoko": 9045,
      "vergnügen": 9046,
      "Begeisterung": 9047,
      "Geschwindigkeit": 9048,
      "30": 9049,
      "50": 9050,
      "Aid": 9051,
      "Athlet": 9052,
      "Big": 9053,
      "Bündel": 9054,
      "Cap": 9055,
      "DS": 9056,
      "East": 9057,
      "Fro": 9058,
      "Flam": 9059,
      "Fontäne": 9060,
      "GO": 9061,
      "Gas": 9062,
      "Gla": 9063,
      "Gurt": 9064,
      "His": 9065,
      "Hub": 9066,
      "Hause": 9067,
      "Halle": 9068,
      "Ich": 9069,
      "Kid": 9070,
      "Kitt": 9071,
      "Kok": 9072,
      "Krü": 9073,
      "Long": 9074,
      "MC": 9075,
      "Mal": 9076,
      "Mes": 9077,
      "Mother": 9078,
      "Mick": 9079,
      "Mag": 9080,
      "Mich": 9081,
      "Mac": 9082,
      "Mini": 9083,
      "Num": 9084,
      "Nad": 9085,
      "Oh": 9086,
      "Okla": 9087,
      "Pan": 9088,
      "Pow": 9089,
      "Papp": 9090,
      "Rod": 9091,
      "Sam": 9092,
      "Tut": 9093,
      "Ted": 9094,
      "Trock": 9095,
      "Vend": 9096,
      "Wor": 9097,
      "Wir": 9098,
      "Weing": 9099,
      "Wanne": 9100,
      "Xyloph": 9101,
      "Yellow": 9102,
      "Yama": 9103,
      "Zelten": 9104,
      "ail": 9105,
      "bten": 9106,
      "bär": 9107,
      "bugg": 9108,
      "campf": 9109,
      "cash": 9110,
      "cries": 9111,
      "dick": 9112,
      "dicken": 9113,
      "gte": 9114,
      "gig": 9115,
      "hon": 9116,
      "had": 9117,
      "hone": 9118,
      "jama": 9119,
      "kund": 9120,
      "kör": 9121,
      "krabb": 9122,
      "lem": 9123,
      "mun": 9124,
      "mut": 9125,
      "nun": 9126,
      "nungen": 9127,
      "oo": 9128,
      "oke": 9129,
      "ossen": 9130,
      "pup": 9131,
      "pts": 9132,
      "prun": 9133,
      "passer": 9134,
      "punch": 9135,
      "pfosten": 9136,
      "rd": 9137,
      "san": 9138,
      "saus": 9139,
      "szug": 9140,
      "ties": 9141,
      "tip": 9142,
      "tired": 9143,
      "teilt": 9144,
      "wirt": 9145,
      "xis": 9146,
      "xyloph": 9147,
      "yer": 9148,
      "zel": 9149,
      "zes": 9150,
      "zup": 9151,
      "ßelt": 9152,
      "öpf": 9153,
      "üchern": 9154,
      "enn": 9155,
      "ened": 9156,
      "erle": 9157,
      "ansehen": 9158,
      "einheim": 9159,
      "eingewickelt": 9160,
      "chis": 9161,
      "itizen": 9162,
      "ington": 9163,
      "unity": 9164,
      "auber": 9165,
      "emade": 9166,
      "stun": 9167,
      "stof": 9168,
      "stiefeln": 9169,
      "strolling": 9170,
      "stift": 9171,
      "strauß": 9172,
      "leben": 9173,
      "level": 9174,
      "leiter": 9175,
      "league": 9176,
      "elab": 9177,
      "alie": 9178,
      "albern": 9179,
      "ison": 9180,
      "rous": 9181,
      "getr": 9182,
      "gespielt": 9183,
      "gefallen": 9184,
      "gefroren": 9185,
      "orter": 9186,
      "manne": 9187,
      "auftritt": 9188,
      "thedr": 9189,
      "mittag": 9190,
      "wommen": 9191,
      "schl": 9192,
      "schel": 9193,
      "schei": 9194,
      "schlan": 9195,
      "scheln": 9196,
      "schatt": 9197,
      "schienen": 9198,
      "labele": 9199,
      "rahmen": 9200,
      "ofen": 9201,
      "tournament": 9202,
      "raus": 9203,
      "illy": 9204,
      "olive": 9205,
      "peers": 9206,
      "pektive": 9207,
      "allt": 9208,
      "bluse": 9209,
      "beauf": 9210,
      "beads": 9211,
      "bestehend": 9212,
      "bewegung": 9213,
      "bewegungen": 9214,
      "bout": 9215,
      "bour": 9216,
      "bockenden": 9217,
      "spins": 9218,
      "spiele": 9219,
      "späht": 9220,
      "ampa": 9221,
      "shine": 9222,
      "shag": 9223,
      "shelf": 9224,
      "opy": 9225,
      "opard": 9226,
      "ments": 9227,
      "dose": 9228,
      "upset": 9229,
      "love": 9230,
      "logo": 9231,
      "lowed": 9232,
      "loaded": 9233,
      "riers": 9234,
      "ridor": 9235,
      "wegen": 9236,
      "chenAid": 9237,
      "Stru": 9238,
      "Stiefel": 9239,
      "plain": 9240,
      "berteil": 9241,
[...]
